{
  "": 50256,
  "!": 0,
  "!!": 1432,
  "!!!": 4589,
  "!!!!": 8153,
  "!!!!!": 28493,
  "!!!!!!": 50199,
  "!!!!!!!!": 28618,
  "!!\"": 44556,
  "!!)": 33826,
  "!!]": 46990,
  "!\"": 2963,
  "!\",": 44815,
  "!\".": 35323,
  "!'": 13840,
  "!(": 46824,
  "!)": 5700,
  "!*": 32854,
  "!,": 32652,
  "!.": 37817,
  "!..": 44311,
  "!...": 34205,
  "!</": 39373,
  "!?": 7323,
  "!]": 7003,
  "!âĢĭ": 15267,
  "!ãĢį": 28534,
  "\"": 1,
  "\"!": 18808,
  "\")": 17830,
  "\",": 2566,
  "\"-": 34370,
  "\".": 1883,
  "\"...": 18332,
  "\":": 29290,
  "\";": 37707,
  "\">": 21732,
  "\"?": 8930,
  "\"]": 23711,
  "#": 2,
  "$": 3,
  "%": 4,
  "%,": 8923,
  "%.": 6856,
  "&": 5,
  "'": 6,
  "'!": 30159,
  "''": 15025,
  "')": 37380,
  "',": 6098,
  "'.": 5004,
  "'...": 37474,
  "'?": 16265,
  "'D": 41063,
  "'M": 25310,
  "'RE": 39040,
  "'S": 11460,
  "'T": 18010,
  "']": 48038,
  "'d": 1116,
  "'ll": 603,
  "'m": 478,
  "'re": 434,
  "'s": 311,
  "'t": 380,
  "'ve": 600,
  "(": 7,
  "()": 45191,
  "(?)": 20396,
  ")": 8,
  ")!": 36380,
  ")\"": 33739,
  ")(": 29422,
  "))": 9383,
  "),": 3824,
  ").": 3050,
  ")...": 40144,
  "):": 4507,
  ");": 34446,
  ")?": 25107,
  ")]": 8245,
  "*": 9,
  "*)": 34634,
  "**": 4852,
  "***": 13684,
  "****": 24396,
  "+": 10,
  "++": 25472,
  "+,": 46797,
  "+.": 45585,
  ",": 11,
  ",\"": 2494,
  ",'": 12529,
  ",)": 36881,
  ",,": 20387,
  ",-": 44013,
  ",.": 40698,
  ",...": 16007,
  ",</": 18531,
  ",âĢ¦": 42581,
  ",âĢĭ": 40271,
  "-": 12,
  "-\"": 36217,
  "-'": 49137,
  "-)": 35129,
  "-,": 24246,
  "--": 918,
  "--\"": 32778,
  "---": 20075,
  "----": 10922,
  "--------": 22781,
  "----------------": 44100,
  ".": 13,
  ".\"": 889,
  ".'": 4443,
  ".'\"": 28763,
  ".''": 34928,
  ".(": 45385,
  ".)": 4273,
  ".*": 40538,
  ".,": 7933,
  ".-": 20375,
  "..": 353,
  "..!": 14757,
  "..\"": 25275,
  "..'": 47145,
  "..)": 23085,
  "...": 485,
  "...!": 14288,
  "...\"": 7651,
  "...'": 42327,
  "...)": 10050,
  "...,": 25427,
  "....": 2751,
  ".....": 13556,
  "......": 20111,
  ".......": 43807,
  "........": 18097,
  "................": 45409,
  "...</": 41341,
  "...?": 8964,
  "...?)": 46498,
  "...]": 13161,
  "...âĢĭ": 26980,
  "..?": 14305,
  "..]": 23548,
  ".:": 23495,
  ".</": 8131,
  ".?": 41401,
  ".\\": 36350,
  ".]": 8147,
  ".Â»": 49335,
  ".âĢĭ": 14900,
  ".âĻª": 40847,
  ".ï¿½": 42521,
  "/": 14,
  "/.": 48550,
  "//": 18150,
  "0": 15,
  "00": 628,
  "000": 1360,
  "0000": 33202,
  "01": 10607,
  "02": 12756,
  "03": 11592,
  "04": 14565,
  "05": 13328,
  "06": 12791,
  "07": 16231,
  "08": 16133,
  "09": 13811,
  "1": 16,
  "10": 3279,
  "100": 6879,
  "1000": 21199,
  "101": 47520,
  "11": 5348,
  "110": 43435,
  "12": 4762,
  "120": 28829,
  "125": 48804,
  "13": 7668,
  "130": 42438,
  "14": 7271,
  "140": 49258,
  "15": 5211,
  "150": 20120,
  "16": 6866,
  "160": 44158,
  "17": 7773,
  "18": 6494,
  "180": 37078,
  "19": 3405,
  "2": 17,
  "20": 2009,
  "200": 7629,
  "2000": 25743,
  "2015": 46081,
  "2016": 41103,
  "2017": 38987,
  "2018": 35023,
  "2019": 30620,
  "2020": 23095,
  "2021": 35016,
  "21": 4436,
  "22": 7490,
  "23": 9356,
  "24": 7911,
  "25": 6074,
  "250": 23538,
  "26": 10880,
  "27": 10076,
  "28": 11205,
  "29": 11871,
  "3": 18,
  "30": 3446,
  "300": 12566,
  "3000": 43160,
  "31": 12967,
  "32": 11440,
  "33": 10191,
  "34": 12249,
  "35": 8794,
  "350": 36027,
  "36": 11309,
  "360": 34099,
  "37": 12851,
  "38": 12625,
  "39": 12493,
  "4": 19,
  "40": 5254,
  "400": 13741,
  "41": 17344,
  "42": 15628,
  "43": 17201,
  "44": 13912,
  "45": 8465,
  "450": 48957,
  "46": 16169,
  "47": 14060,
  "48": 13318,
  "49": 14938,
  "5": 20,
  "50": 2803,
  "500": 7526,
  "5000": 44557,
  "51": 18682,
  "52": 17602,
  "53": 19584,
  "54": 19563,
  "55": 13622,
  "56": 18317,
  "57": 19004,
  "58": 20419,
  "59": 19600,
  "6": 21,
  "60": 4550,
  "600": 15707,
  "61": 31537,
  "62": 28052,
  "63": 29491,
  "64": 19395,
  "65": 16824,
  "66": 15237,
  "67": 22452,
  "68": 27102,
  "69": 30908,
  "7": 22,
  "70": 5867,
  "700": 18197,
  "71": 29985,
  "72": 28890,
  "73": 33396,
  "74": 34026,
  "75": 11901,
  "750": 45396,
  "76": 25026,
  "77": 17512,
  "78": 30693,
  "79": 32042,
  "8": 23,
  "80": 4702,
  "800": 14423,
  "81": 32875,
  "82": 32848,
  "83": 31849,
  "84": 25494,
  "85": 19287,
  "86": 22193,
  "87": 23853,
  "88": 16919,
  "89": 21115,
  "9": 24,
  "90": 7771,
  "900": 23943,
  "91": 29925,
  "92": 21821,
  "93": 26372,
  "94": 27032,
  "95": 15718,
  "96": 22962,
  "97": 23247,
  "98": 22516,
  "99": 8494,
  "999": 49017,
  ":": 25,
  ":\"": 31330,
  ":)": 21048,
  "://": 21492,
  ":]": 10624,
  ":ãĢĮ": 45876,
  ";": 26,
  ";;": 35746,
  "<": 27,
  "</": 3433,
  "<|endoftext|>": 50257,
  "=": 28,
  "=\"": 13114,
  "=\"#": 34106,
  "=#": 49872,
  "==": 2945,
  ">": 29,
  ">-": 33335,
  "><": 29986,
  "></": 48986,
  ">>": 893,
  "?": 30,
  "?!": 3529,
  "?!\"": 35271,
  "?!?": 38825,
  "?!?!": 44587,
  "?\"": 1811,
  "?\",": 29359,
  "?\".": 25760,
  "?'": 8569,
  "?)": 4827,
  "?,": 22753,
  "?-": 38337,
  "?.": 27552,
  "?..": 46863,
  "?...": 32865,
  "?</": 27381,
  "??": 4246,
  "???": 16259,
  "????": 25629,
  "?]": 7507,
  "?âĢĭ": 20096,
  "?ãĢį": 30949,
  "@": 31,
  "A": 32,
  "AA": 5265,
  "AAAA": 13336,
  "AAAAAAAA": 32729,
  "AB": 13868,
  "AC": 4378,
  "ACE": 23866,
  "ACH": 19972,
  "ACK": 11595,
  "ACT": 42936,
  "AD": 6112,
  "ADA": 45852,
  "ADAS": 37760,
  "ADE": 41671,
  "AF": 40418,
  "AG": 50228,
  "AH": 10566,
  "AI": 48698,
  "AJ": 36404,
  "AK": 5340,
  "AKE": 15030,
  "AKI": 23225,
  "AL": 3427,
  "ALD": 35502,
  "ALI": 11566,
  "ALK": 24477,
  "ALL": 15921,
  "ALLY": 23327,
  "AM": 2865,
  "AMA": 38136,
  "AME": 31296,
  "AN": 1770,
  "ANA": 21429,
  "ANC": 31885,
  "AND": 8070,
  "ANE": 29348,
  "ANG": 12419,
  "ANK": 18215,
  "ANNA": 40682,
  "ANO": 48129,
  "ANS": 25711,
  "ANT": 12243,
  "AP": 4715,
  "APP": 8749,
  "APPLAUSE": 10181,
  "AR": 1899,
  "ARA": 26715,
  "ARD": 13259,
  "ARE": 28186,
  "ARI": 39545,
  "ARIN": 36304,
  "ARK": 36402,
  "ARON": 43191,
  "ARR": 7859,
  "ARRATOR": 9979,
  "ARRY": 49968,
  "ARS": 31343,
  "ART": 15118,
  "ARY": 24634,
  "AS": 3160,
  "ASE": 26462,
  "ASH": 24036,
  "ASON": 26556,
  "ASS": 19678,
  "AST": 20398,
  "AT": 2218,
  "ATA": 44811,
  "ATE": 20047,
  "ATH": 17026,
  "ATHAN": 49779,
  "ATHER": 39811,
  "ATION": 22528,
  "ATOR": 9041,
  "ATT": 43321,
  "AU": 2340,
  "AUDI": 4993,
  "AUDIBLE": 5436,
  "AUDIENCE": 37152,
  "AUDIO": 29937,
  "AUL": 22624,
  "AY": 4299,
  "Ab": 23695,
  "Abs": 46417,
  "Ac": 43705,
  "Acc": 47943,
  "Act": 30338,
  "Ad": 15830,
  "Adam": 32937,
  "Add": 36189,
  "Af": 32104,
  "After": 24288,
  "Ag": 37968,
  "Ah": 10844,
  "Air": 46016,
  "Al": 9171,
  "Alex": 22993,
  "All": 7868,
  "Allah": 26022,
  "Alright": 30184,
  "Am": 16833,
  "Americ": 11755,
  "American": 14604,
  "Americans": 34860,
  "An": 7828,
  "And": 5289,
  "Andrew": 38805,
  "Ang": 23156,
  "Angel": 43643,
  "Ann": 15275,
  "Announcer": 19007,
  "Another": 46028,
  "Ant": 35807,
  "Any": 29647,
  "App": 9132,
  "Applause": 14650,
  "Ar": 10683,
  "Are": 13332,
  "Arin": 47405,
  "Art": 32925,
  "Arthur": 42646,
  "As": 10884,
  "Ash": 32648,
  "Ask": 47802,
  "Ass": 20892,
  "Assistant": 27763,
  "At": 18684,
  "Att": 38151,
  "Aud": 15591,
  "Audience": 19213,
  "Aust": 47215,
  "Aut": 49769,
  "Aw": 36477,
  "Ay": 31983,
  "B": 33,
  "BA": 9295,
  "BACK": 40880,
  "BB": 30366,
  "BC": 7869,
  "BE": 10207,
  "BER": 11074,
  "BERG": 46233,
  "BERT": 22184,
  "BI": 11291,
  "BL": 17624,
  "BLANK": 37592,
  "BLE": 4854,
  "BLEEP": 34542,
  "BM": 18345,
  "BN": 32006,
  "BO": 15893,
  "BR": 11609,
  "BRUN": 17442,
  "BRUNO": 18468,
  "BS": 8176,
  "BSCRI": 31622,
  "BT": 33853,
  "BU": 41743,
  "BY": 16688,
  "Ba": 33407,
  "Baby": 39767,
  "Back": 28404,
  "Bar": 38666,
  "Bay": 29853,
  "Be": 6524,
  "Because": 21831,
  "Before": 49731,
  "Beifall": 14551,
  "Ben": 21736,
  "Big": 32023,
  "Bill": 49783,
  "Bir": 41786,
  "Bl": 14520,
  "Black": 29802,
  "Blue": 45231,
  "Bo": 22493,
  "Bob": 22547,
  "Bon": 42145,
  "Book": 19203,
  "Books": 48386,
  "Both": 24268,
  "Box": 34980,
  "Boy": 31378,
  "Br": 22170,
  "Bra": 45606,
  "Brad": 44435,
  "Bre": 43034,
  "Brian": 29462,
  "Brid": 47738,
  "Brien": 47999,
  "Bro": 43295,
  "Bry": 26727,
  "Bryan": 34940,
  "Bu": 28110,
  "But": 7835,
  "By": 27690,
  "Bye": 32825,
  "C": 34,
  "CA": 15515,
  "CAR": 35270,
  "CC": 11717,
  "CD": 16508,
  "CE": 4969,
  "CER": 28313,
  "CH": 5462,
  "CHEERING": 41294,
  "CHUCK": 40308,
  "CI": 25240,
  "CK": 9419,
  "CL": 22458,
  "CO": 12322,
  "COM": 34939,
  "CON": 45541,
  "CP": 20049,
  "CR": 18547,
  "CRI": 28046,
  "CROSSTALK": 39721,
  "CS": 26283,
  "CT": 10259,
  "CTOR": 28587,
  "CTV": 41391,
  "CU": 25864,
  "CUBE": 39882,
  "Cal": 31279,
  "Call": 46113,
  "Cam": 31030,
  "Camer": 39027,
  "Camera": 48009,
  "Cameraman": 44689,
  "Can": 11531,
  "Cap": 46671,
  "Car": 24437,
  "Care": 41394,
  "Carl": 35203,
  "Cause": 7585,
  "Ch": 6546,
  "Cha": 46368,
  "Char": 25291,
  "Chat": 41683,
  "Che": 15683,
  "Check": 47769,
  "Child": 35117,
  "Cho": 44473,
  "Chr": 11644,
  "Chris": 19262,
  "Christ": 19171,
  "Christian": 46580,
  "Cl": 9966,
  "Class": 44621,
  "Clint": 28243,
  "Clintus": 29549,
  "Cloud": 32787,
  "Co": 21141,
  "Cola": 42441,
  "Coll": 35294,
  "Com": 14627,
  "Come": 16044,
  "Comm": 39206,
  "Comment": 26413,
  "Commentary": 35077,
  "Con": 9838,
  "Conf": 43874,
  "Cong": 30602,
  "Connell": 37335,
  "Connie": 38102,
  "Cont": 29821,
  "Cool": 50145,
  "Cor": 29020,
  "Could": 46497,
  "Cr": 38750,
  "Cra": 46796,
  "Cre": 44637,
  "Crowd": 43849,
  "Cry": 38477,
  "Cs": 33290,
  "Cu": 35222,
  "CÃ³mo": 28342,
  "D": 35,
  "DA": 7509,
  "DAY": 38391,
  "DB": 27735,
  "DC": 25619,
  "DD": 20818,
  "DE": 22296,
  "DEN": 41190,
  "DER": 30500,
  "DI": 3085,
  "DIA": 38931,
  "DIE": 17521,
  "DING": 49748,
  "DIO": 49021,
  "DJ": 48383,
  "DO": 26649,
  "DP": 11373,
  "DR": 9301,
  "DS": 11844,
  "DY": 34891,
  "Da": 32409,
  "Dad": 14599,
  "Dam": 37442,
  "Dan": 17087,
  "Daniel": 32628,
  "Das": 40781,
  "Dav": 17298,
  "Dave": 34075,
  "David": 18371,
  "Day": 38495,
  "De": 11089,
  "Dear": 42712,
  "Del": 40848,
  "Der": 49853,
  "Des": 29543,
  "Det": 41444,
  "Did": 17648,
  "Die": 29928,
  "Dire": 47747,
  "Dis": 38742,
  "Do": 7653,
  "Does": 30323,
  "Don": 7450,
  "Donald": 15111,
  "Down": 34402,
  "Dr": 12274,
  "Drive": 41624,
  "Du": 46266,
  "E": 36,
  "EC": 8140,
  "ECH": 36880,
  "ECT": 39904,
  "ED": 4731,
  "EE": 7258,
  "EEEE": 31817,
  "EEP": 32810,
  "EER": 25056,
  "EERING": 27607,
  "EL": 3158,
  "ELI": 12349,
  "ELIPE": 13013,
  "ELL": 8763,
  "ELLE": 33420,
  "ELLER": 38025,
  "ELLI": 44202,
  "EM": 6683,
  "EMA": 24891,
  "EN": 2195,
  "ENA": 40998,
  "ENCE": 7163,
  "END": 18910,
  "ENE": 35190,
  "ENGLISH": 47997,
  "ENN": 14364,
  "ENNIS": 45283,
  "ENS": 30174,
  "ENT": 9536,
  "ENTE": 30752,
  "ENTS": 49751,
  "EO": 6004,
  "EOVER": 31825,
  "EP": 8929,
  "ER": 1598,
  "ERE": 16069,
  "ERO": 37494,
  "ERS": 14451,
  "ERT": 31479,
  "ES": 2358,
  "ESCO": 47024,
  "ESE": 28161,
  "ESIN": 13750,
  "ESS": 12268,
  "EST": 14497,
  "ET": 4850,
  "ETH": 16083,
  "EX": 39814,
  "EZ": 42329,
  "Ed": 27061,
  "Edu": 16559,
  "Eh": 42810,
  "El": 17356,
  "Ellie": 42258,
  "Em": 22285,
  "En": 16257,
  "End": 36952,
  "Eng": 31254,
  "Ent": 42837,
  "Ep": 47617,
  "Er": 28135,
  "Eric": 34125,
  "Es": 20442,
  "Est": 29545,
  "Et": 48205,
  "Eu": 37611,
  "Euro": 30056,
  "Europe": 32293,
  "Even": 25931,
  "Every": 15536,
  "Everyone": 29033,
  "Everything": 44099,
  "Evet": 43482,
  "Ex": 11149,
  "Exc": 33553,
  "F": 37,
  "FA": 19684,
  "FBE": 26468,
  "FC": 18671,
  "FE": 28182,
  "FELIPE": 13282,
  "FF": 6345,
  "FFFF": 47427,
  "FI": 38568,
  "FL": 31455,
  "FO": 18067,
  "FORE": 47696,
  "FP": 45882,
  "FR": 34658,
  "FS": 29318,
  "FT": 25469,
  "FX": 36092,
  "Father": 44773,
  "Fe": 29341,
  "Female": 37402,
  "Fi": 13229,
  "Fih": 17468,
  "Fil": 39933,
  "Fin": 50068,
  "Finally": 44259,
  "Fine": 41415,
  "Fire": 45651,
  "First": 27454,
  "Fit": 49901,
  "Fl": 25680,
  "Flow": 31091,
  "Fonda": 35286,
  "For": 12587,
  "Form": 49855,
  "Fr": 40305,
  "Frank": 47566,
  "Fre": 47537,
  "Fred": 44484,
  "Free": 45479,
  "From": 26219,
  "Fun": 46947,
  "G": 38,
  "GA": 12570,
  "GAN": 27699,
  "GB": 8769,
  "GE": 9177,
  "GER": 34389,
  "GG": 27561,
  "GH": 4269,
  "GHT": 41976,
  "GI": 26252,
  "GL": 19440,
  "GLISH": 41920,
  "GM": 25152,
  "GO": 11601,
  "GR": 23971,
  "GS": 24446,
  "GU": 32298,
  "Game": 32700,
  "Gary": 31798,
  "Ge": 22766,
  "Gen": 26647,
  "General": 46302,
  "Get": 18133,
  "Girl": 25192,
  "Give": 31186,
  "Go": 12104,
  "God": 18358,
  "Gold": 49585,
  "Good": 14649,
  "Got": 37373,
  "Gr": 20038,
  "Gra": 37858,
  "Graeme": 46395,
  "Grand": 45076,
  "Great": 30604,
  "Green": 46854,
  "Greg": 48254,
  "Group": 48711,
  "Gs": 33715,
  "Gu": 25627,
  "GÃ¼lme": 45293,
  "H": 39,
  "HA": 4983,
  "HAEL": 21413,
  "HAHA": 21803,
  "HAM": 47035,
  "HAN": 24496,
  "HD": 22859,
  "HE": 23728,
  "HEN": 46097,
  "HH": 7499,
  "HHH": 35446,
  "HHHH": 18454,
  "HI": 49038,
  "HN": 12552,
  "HO": 22585,
  "HS": 12527,
  "HY": 25501,
  "HYUN": 46625,
  "Ha": 23745,
  "Ham": 43662,
  "Happy": 31496,
  "Har": 49571,
  "Harry": 47304,
  "Have": 25659,
  "Hay": 39075,
  "He": 5205,
  "Hello": 15947,
  "Help": 48934,
  "Her": 27934,
  "Here": 17685,
  "Hey": 7057,
  "Hi": 17155,
  "High": 40185,
  "His": 26864,
  "Hmm": 40527,
  "Ho": 35633,
  "Hola": 48529,
  "Hold": 42347,
  "Home": 47974,
  "Hope": 46959,
  "Host": 29644,
  "How": 6462,
  "Hub": 21150,
  "Huh": 33214,
  "Hy": 38792,
  "Hyun": 48279,
  "Hz": 21409,
  "I": 40,
  "IA": 6914,
  "IAM": 30202,
  "IAN": 33794,
  "IB": 39081,
  "IC": 2532,
  "ICA": 22772,
  "ICE": 13663,
  "ICEOVER": 31992,
  "ICES": 40407,
  "ICH": 15478,
  "ICIA": 44480,
  "ICK": 12141,
  "ICO": 36568,
  "ID": 2777,
  "IDE": 29283,
  "IDS": 21776,
  "IE": 6550,
  "IEL": 24212,
  "IES": 37166,
  "IF": 12775,
  "IFA": 35340,
  "IG": 10489,
  "IGH": 15483,
  "IGHT": 21926,
  "IGN": 38455,
  "II": 9503,
  "III": 28952,
  "IK": 22670,
  "IL": 4620,
  "ILL": 8621,
  "ILY": 36980,
  "IM": 6324,
  "IN": 1464,
  "INA": 20633,
  "INAUDIBLE": 5444,
  "IND": 18323,
  "INDISTINCT": 43248,
  "INE": 16258,
  "ING": 3017,
  "INGING": 24763,
  "INGS": 40434,
  "INK": 24856,
  "INO": 40901,
  "INS": 22354,
  "INT": 29398,
  "INTER": 38120,
  "INTERPOSING": 46873,
  "IO": 15167,
  "ION": 12841,
  "IP": 9139,
  "IR": 7740,
  "IRE": 30263,
  "IS": 2343,
  "ISA": 26183,
  "ISE": 19413,
  "ISH": 18842,
  "ISHA": 11973,
  "ISS": 30090,
  "ISSA": 29001,
  "IST": 19756,
  "ISTIN": 40346,
  "ISTINCT": 40578,
  "IT": 3927,
  "ITA": 40829,
  "ITCH": 43071,
  "ITE": 31540,
  "ITH": 15401,
  "ITT": 35582,
  "ITY": 28853,
  "IV": 10375,
  "IVE": 34146,
  "IX": 21124,
  "IZ": 24374,
  "Ich": 29081,
  "Id": 42739,
  "If": 8031,
  "Il": 37961,
  "Im": 31128,
  "Imp": 43329,
  "In": 4575,
  "Inaudible": 24986,
  "Ind": 21790,
  "Ins": 43984,
  "Inst": 28411,
  "Int": 25597,
  "Inter": 13406,
  "Interviewer": 16432,
  "Intro": 50247,
  "Is": 6802,
  "Isn": 48310,
  "It": 3522,
  "J": 41,
  "JA": 27818,
  "JE": 48474,
  "JI": 43038,
  "JIN": 38475,
  "JO": 37523,
  "JUN": 42802,
  "Ja": 19111,
  "Jac": 31736,
  "Jack": 23174,
  "Jacob": 38691,
  "Jake": 49501,
  "Jam": 37834,
  "James": 32263,
  "Jamie": 47121,
  "Jan": 46356,
  "Japanese": 48354,
  "Jared": 31835,
  "Jason": 38267,
  "Je": 16582,
  "Jeff": 33887,
  "Jen": 30555,
  "Jenn": 40286,
  "Jennifer": 49524,
  "Jenny": 47546,
  "Jeremy": 29438,
  "Jess": 27604,
  "Jessica": 33576,
  "Jesus": 37521,
  "Ji": 49096,
  "Jim": 36806,
  "Jin": 37340,
  "Jo": 20846,
  "Joe": 23981,
  "John": 16938,
  "Jon": 33938,
  "Jordan": 33523,
  "Josh": 29006,
  "Judge": 46717,
  "Jul": 29130,
  "Julia": 49727,
  "Just": 12794,
  "Justin": 49371,
  "K": 42,
  "KA": 16135,
  "KE": 8522,
  "KEN": 40136,
  "KI": 27731,
  "KK": 43210,
  "KN": 34559,
  "KNOWN": 44505,
  "KO": 37719,
  "KS": 31558,
  "KY": 31796,
  "Kap": 35372,
  "KapÄ±": 37520,
  "Katie": 41776,
  "Kay": 30711,
  "Ke": 18570,
  "Keep": 41856,
  "Kelly": 44688,
  "Ken": 39492,
  "Kendra": 37530,
  "Kevin": 45146,
  "Kim": 26861,
  "King": 39239,
  "Kit": 45626,
  "Kn": 49276,
  "Korean": 44285,
  "L": 43,
  "LA": 11435,
  "LAN": 36527,
  "LAU": 4633,
  "LAUGH": 6664,
  "LAUGHING": 42216,
  "LAUGHS": 24352,
  "LAUGHTER": 11734,
  "LAUSE": 9174,
  "LC": 14766,
  "LD": 23704,
  "LE": 2634,
  "LED": 23459,
  "LER": 30494,
  "LES": 29517,
  "LET": 43727,
  "LEX": 23472,
  "LEY": 14287,
  "LI": 48718,
  "LIE": 50144,
  "LING": 41717,
  "LL": 24010,
  "LO": 20184,
  "LOL": 32038,
  "LP": 45196,
  "LR": 31722,
  "LS": 19198,
  "LY": 10940,
  "La": 5478,
  "Lab": 37880,
  "Last": 42385,
  "Laugh": 38303,
  "Laughing": 24742,
  "Laughs": 16577,
  "Laughter": 11064,
  "Le": 11020,
  "Lee": 39548,
  "Les": 43701,
  "Let": 8373,
  "Life": 25900,
  "Like": 19657,
  "Lilly": 49387,
  "Link": 26822,
  "Listen": 35819,
  "Little": 42929,
  "Lo": 31645,
  "Look": 12863,
  "Looking": 47711,
  "Lord": 35040,
  "Lou": 46316,
  "Love": 24394,
  "Lu": 45908,
  "Luc": 43628,
  "M": 44,
  "MA": 9998,
  "MAN": 11866,
  "MAND": 39468,
  "MANDARIN": 40911,
  "MB": 47554,
  "MC": 39261,
  "ME": 15454,
  "MER": 42620,
  "MI": 13808,
  "MIN": 42190,
  "MK": 48855,
  "ML": 12683,
  "MM": 17365,
  "MO": 18976,
  "MON": 35486,
  "MP": 12224,
  "MR": 21173,
  "MS": 10288,
  "MUSIC": 6848,
  "MY": 25859,
  "Ma": 30290,
  "Mac": 34355,
  "Mad": 33432,
  "Mag": 37445,
  "Make": 35650,
  "Male": 30171,
  "Man": 6652,
  "Mania": 45637,
  "Mar": 16639,
  "Mark": 15168,
  "Mart": 29612,
  "Mary": 29681,
  "Master": 40854,
  "Mat": 42325,
  "Matt": 23483,
  "Max": 36025,
  "May": 19533,
  "Maybe": 29727,
  "Mc": 46716,
  "Me": 12671,
  "Med": 42954,
  "Mel": 41510,
  "Men": 30505,
  "Mer": 45757,
  "Mi": 49380,
  "Mic": 48831,
  "Mich": 18462,
  "Michael": 23277,
  "Mike": 25519,
  "Min": 30031,
  "Miss": 47205,
  "Missy": 47840,
  "Mm": 47598,
  "Mo": 29396,
  "Mom": 13255,
  "Mon": 32498,
  "Moo": 47695,
  "Moon": 46015,
  "More": 33986,
  "Most": 49101,
  "Mother": 41689,
  "Mr": 10554,
  "Ms": 26386,
  "Mus": 22088,
  "Music": 8710,
  "Musik": 43417,
  "My": 8506,
  "MÃºsica": 38725,
  "MÃ¼zik": 11443,
  "N": 45,
  "NA": 5321,
  "ND": 13360,
  "NE": 15988,
  "NEN": 21317,
  "NER": 24499,
  "NET": 35554,
  "NEY": 45317,
  "NG": 30237,
  "NI": 42496,
  "NIE": 34279,
  "NING": 28481,
  "NIS": 22460,
  "NO": 12861,
  "NOISE": 26877,
  "NON": 34292,
  "NOUN": 33378,
  "NOUNCER": 34387,
  "NS": 42003,
  "NT": 30817,
  "NY": 27647,
  "Na": 33824,
  "Narrator": 9075,
  "Nat": 49310,
  "Nathan": 50072,
  "Ne": 15496,
  "Net": 31890,
  "Never": 37857,
  "New": 18278,
  "News": 35766,
  "Next": 31002,
  "Nice": 37717,
  "Nick": 44387,
  "Nico": 35137,
  "No": 4540,
  "Non": 47914,
  "Not": 15208,
  "Note": 49250,
  "Nothing": 42130,
  "Now": 13267,
  "NÃ£o": 48204,
  "O": 46,
  "OC": 30087,
  "OD": 14632,
  "OFF": 45825,
  "OG": 45978,
  "OH": 31187,
  "OK": 9443,
  "OL": 5046,
  "OLD": 33203,
  "OLL": 35787,
  "OM": 5251,
  "OMAN": 26418,
  "OME": 23344,
  "ON": 1928,
  "ONA": 49659,
  "ONE": 14248,
  "ONEY": 49209,
  "ONG": 12661,
  "ONY": 48235,
  "OO": 3783,
  "OOD": 20969,
  "OOK": 24213,
  "OOM": 26345,
  "OOO": 44136,
  "OOOO": 14963,
  "OOOOOOOO": 40466,
  "OP": 12059,
  "OR": 2483,
  "ORA": 36860,
  "ORD": 13748,
  "ORE": 16193,
  "ORIA": 22361,
  "ORT": 25319,
  "ORTER": 39351,
  "ORY": 38847,
  "OS": 4367,
  "OSE": 40097,
  "OSH": 26255,
  "OSS": 35683,
  "OSSTALK": 39624,
  "OST": 28067,
  "OT": 5068,
  "OTH": 28200,
  "OTHER": 48467,
  "OTT": 29525,
  "OU": 4807,
  "OUGH": 34723,
  "OUL": 46598,
  "OULD": 50246,
  "OUR": 29127,
  "OUT": 27276,
  "OW": 5769,
  "OWN": 17536,
  "OY": 16973,
  "Ob": 45483,
  "Of": 23919,
  "Off": 29745,
  "Oh": 3756,
  "Ok": 26616,
  "Okay": 8297,
  "Ol": 38056,
  "Old": 49032,
  "On": 11747,
  "Once": 47062,
  "One": 15426,
  "Only": 35773,
  "Ooh": 44648,
  "Open": 45569,
  "Ops": 36179,
  "Or": 21520,
  "Orange": 41206,
  "Os": 31376,
  "Our": 24466,
  "Out": 28353,
  "Over": 33093,
  "P": 47,
  "PA": 10297,
  "PC": 12986,
  "PD": 17349,
  "PE": 5208,
  "PEAK": 10393,
  "PER": 21197,
  "PH": 21904,
  "PI": 31701,
  "PL": 21593,
  "PLE": 37616,
  "PM": 18819,
  "PN": 15466,
  "PO": 34885,
  "POS": 41916,
  "POSING": 46724,
  "PP": 17755,
  "PR": 15958,
  "PS": 6273,
  "PU": 8115,
  "Pa": 18968,
  "Pac": 45604,
  "Pad": 50112,
  "Pal": 29141,
  "Par": 46087,
  "Park": 37905,
  "Part": 37012,
  "Pass": 39529,
  "Pat": 29331,
  "Paul": 26434,
  "Pe": 20048,
  "People": 35069,
  "Per": 23232,
  "Perfect": 48153,
  "Peter": 28947,
  "Ph": 24382,
  "Phone": 39932,
  "Pl": 33710,
  "Play": 24262,
  "Please": 16216,
  "Plus": 32111,
  "Pod": 40742,
  "Pods": 39720,
  "Point": 18705,
  "Pop": 38677,
  "Por": 24907,
  "Power": 46057,
  "Pr": 30519,
  "Pre": 42844,
  "Press": 20516,
  "Pro": 12681,
  "Produ": 42370,
  "Prof": 43227,
  "Ps": 23043,
  "Put": 37594,
  "Q": 48,
  "QL": 13695,
  "QU": 26078,
  "QUE": 41724,
  "Qu": 8547,
  "Que": 24011,
  "Queen": 47924,
  "Query": 35550,
  "QuÃ©": 15137,
  "R": 49,
  "RA": 3750,
  "RAY": 48023,
  "RC": 28437,
  "RE": 3850,
  "REAM": 28649,
  "REE": 44542,
  "RET": 36535,
  "REW": 26543,
  "REY": 29233,
  "RI": 5577,
  "RIA": 41125,
  "RIS": 9698,
  "RISADAS": 38952,
  "RL": 10740,
  "RNA": 37377,
  "RO": 7142,
  "RP": 28516,
  "RR": 35714,
  "RS": 43580,
  "RY": 16359,
  "Ra": 41873,
  "Rad": 48444,
  "Rah": 42077,
  "Ray": 35737,
  "Re": 8524,
  "Read": 40702,
  "Real": 45261,
  "Really": 26459,
  "Rec": 48883,
  "Red": 20544,
  "Redner": 35338,
  "Rednerwechsel": 35382,
  "Reg": 40888,
  "Rel": 49029,
  "Rem": 39170,
  "Rep": 25554,
  "Reporter": 35918,
  "Res": 33274,
  "Rh": 31121,
  "Rhett": 38110,
  "Rich": 44654,
  "Right": 16964,
  "Ro": 26235,
  "Rob": 26332,
  "Robert": 47960,
  "Rock": 39061,
  "Ron": 45532,
  "Run": 42639,
  "Ryan": 32106,
  "S": 50,
  "SA": 8886,
  "SAY": 40853,
  "SC": 20839,
  "SD": 23969,
  "SE": 5879,
  "SH": 17308,
  "SI": 20262,
  "SINGING": 29859,
  "SL": 47012,
  "SM": 26693,
  "SN": 32481,
  "SO": 17188,
  "SON": 10388,
  "SOUND": 28625,
  "SP": 27921,
  "SPD": 42450,
  "SPEAK": 33898,
  "SPEAKING": 37414,
  "SQL": 39934,
  "SS": 21929,
  "ST": 6840,
  "STA": 28075,
  "STALK": 39557,
  "STE": 39285,
  "STR": 49440,
  "SU": 20214,
  "Sa": 45393,
  "Sab": 47556,
  "Sad": 47801,
  "Sal": 39013,
  "Sam": 28743,
  "Sarah": 48878,
  "Save": 46899,
  "Say": 42263,
  "Sc": 16806,
  "Sch": 31560,
  "Scott": 46488,
  "Script": 14237,
  "Se": 10637,
  "Sean": 49658,
  "Sec": 29511,
  "See": 26869,
  "Sen": 38340,
  "Ser": 31859,
  "Set": 42718,
  "Sh": 7774,
  "Sha": 23429,
  "Shaun": 34512,
  "She": 9526,
  "Sho": 39751,
  "Should": 38580,
  "Show": 27692,
  "Si": 35885,
  "Sil": 34384,
  "Sim": 39392,
  "Since": 44294,
  "Singing": 36354,
  "Sir": 43318,
  "Sl": 46922,
  "Sm": 26578,
  "Sn": 43690,
  "So": 6455,
  "Some": 24882,
  "Something": 45431,
  "Son": 40710,
  "Sorry": 29761,
  "Sound": 44830,
  "Sp": 14014,
  "Space": 44306,
  "Spe": 19588,
  "St": 4520,
  "Sta": 43546,
  "Star": 24659,
  "Start": 33996,
  "Station": 19468,
  "Ste": 14208,
  "Step": 23624,
  "Stephen": 39908,
  "Steve": 28910,
  "Stevie": 37145,
  "Still": 47156,
  "Stop": 26163,
  "Str": 45324,
  "Stud": 42665,
  "Student": 40762,
  "Su": 46413,
  "Sub": 39582,
  "Sud": 42545,
  "Sun": 42455,
  "Super": 30152,
  "Sur": 36616,
  "Sure": 31618,
  "Sw": 38373,
  "SÃŃ": 30463,
  "T": 51,
  "TA": 8241,
  "TAKE": 45304,
  "TC": 18238,
  "TE": 13639,
  "TER": 5568,
  "TF": 20527,
  "TH": 9620,
  "THE": 41847,
  "TI": 5422,
  "TIN": 13758,
  "TION": 7413,
  "TM": 42023,
  "TO": 15427,
  "TON": 17739,
  "TOR": 36400,
  "TP": 16804,
  "TR": 25936,
  "TS": 7327,
  "TT": 28178,
  "TV": 12586,
  "TY": 23433,
  "Ta": 35676,
  "Take": 25891,
  "Talk": 33210,
  "Te": 14233,
  "Team": 38588,
  "Tech": 36050,
  "Tell": 36152,
  "Ter": 43352,
  "Text": 50198,
  "Th": 2434,
  "Thank": 10602,
  "Thanks": 27917,
  "That": 6390,
  "The": 2278,
  "Then": 20371,
  "There": 9077,
  "These": 28858,
  "They": 8829,
  "This": 5723,
  "Those": 45413,
  "Thr": 47256,
  "Three": 46696,
  "Tiffany": 37953,
  "Tim": 32278,
  "Time": 22233,
  "To": 13342,
  "Tod": 22249,
  "Today": 27676,
  "Tok": 18797,
  "Tom": 23442,
  "Tony": 48622,
  "Too": 40980,
  "Top": 50118,
  "Tr": 14252,
  "Tra": 38971,
  "Trans": 33339,
  "Tre": 46009,
  "Ts": 33424,
  "Tu": 41405,
  "Tube": 41173,
  "Turn": 50182,
  "Tw": 42070,
  "Two": 33594,
  "Ty": 22464,
  "Tyler": 39843,
  "U": 52,
  "UA": 35227,
  "UB": 23553,
  "UC": 23967,
  "UCK": 14263,
  "UD": 9438,
  "UE": 16309,
  "UFF": 20777,
  "UI": 46324,
  "UL": 10253,
  "ULL": 42615,
  "UM": 14340,
  "UN": 3979,
  "UND": 14126,
  "UNG": 14676,
  "UNKNOWN": 47774,
  "UNT": 41872,
  "UP": 22917,
  "UR": 7932,
  "URE": 35916,
  "US": 3447,
  "USE": 44626,
  "USIC": 5791,
  "UST": 21536,
  "USTIN": 35659,
  "UT": 8709,
  "UU": 23687,
  "Uh": 27727,
  "Um": 40937,
  "Un": 12405,
  "Unis": 39489,
  "Up": 22164,
  "Us": 29211,
  "V": 53,
  "VA": 20914,
  "VE": 7540,
  "VEL": 46149,
  "VEN": 29016,
  "VER": 9398,
  "VES": 46467,
  "VI": 25322,
  "VID": 3958,
  "VIE": 33238,
  "VIN": 27487,
  "VIS": 11345,
  "VO": 20664,
  "VOICEOVER": 33890,
  "VPN": 45998,
  "VR": 44358,
  "Ver": 36929,
  "Very": 31733,
  "Vi": 41093,
  "Via": 46477,
  "Vict": 39981,
  "Video": 46287,
  "View": 30203,
  "Voice": 13339,
  "Voiceover": 14631,
  "W": 54,
  "WA": 21449,
  "WAN": 42843,
  "WAY": 44372,
  "WE": 37937,
  "WER": 37598,
  "WH": 28206,
  "WOO": 46383,
  "WOR": 48126,
  "WS": 12508,
  "WW": 44048,
  "Wait": 20376,
  "War": 45696,
  "Was": 30974,
  "Watch": 36204,
  "We": 4360,
  "Welcome": 35251,
  "Well": 6271,
  "West": 37943,
  "Wh": 2471,
  "What": 3748,
  "When": 11645,
  "Where": 14436,
  "Which": 33785,
  "While": 46075,
  "White": 47589,
  "Who": 10927,
  "Whoa": 43074,
  "Why": 8429,
  "Will": 18996,
  "Wind": 45813,
  "With": 20943,
  "Wo": 44993,
  "Woman": 14361,
  "Work": 28846,
  "World": 37881,
  "Would": 35256,
  "Wow": 14076,
  "X": 55,
  "XT": 20542,
  "Xi": 41577,
  "Y": 56,
  "YA": 34349,
  "YAN": 25326,
  "YE": 18881,
  "YN": 22315,
  "YO": 28821,
  "YU": 19280,
  "YY": 40570,
  "Ya": 26795,
  "Ye": 5542,
  "Yeah": 5973,
  "Yes": 6054,
  "Yo": 27728,
  "You": 3223,
  "Young": 36605,
  "Your": 17927,
  "Z": 57,
  "ZA": 39431,
  "ZY": 26888,
  "ZZ": 30108,
  "Ze": 44571,
  "[": 58,
  "\\": 59,
  "\\'": 40894,
  "]": 60,
  "],": 10599,
  "],,": 43192,
  "].": 5840,
  "]..": 29721,
  "]:": 6844,
  "]?": 33129,
  "][": 43926,
  "^": 61,
  "^^": 30932,
  "_": 62,
  "__": 10852,
  "____": 23757,
  "`": 63,
  "a": 64,
  "aa": 4332,
  "aaS": 45515,
  "aaa": 22714,
  "aaaa": 16425,
  "aal": 38950,
  "aan": 21326,
  "aat": 40841,
  "ab": 455,
  "aba": 5509,
  "abad": 32776,
  "aban": 18165,
  "abb": 10797,
  "abe": 4488,
  "abei": 12449,
  "abel": 18657,
  "aben": 25071,
  "aber": 23298,
  "abet": 9058,
  "abetes": 12632,
  "abeth": 11744,
  "abi": 18884,
  "abil": 5177,
  "abile": 33288,
  "abilir": 21711,
  "abilities": 6167,
  "ability": 2310,
  "abis": 22588,
  "abl": 32212,
  "able": 712,
  "abled": 8909,
  "ables": 2965,
  "abling": 20112,
  "ablo": 21991,
  "ably": 1188,
  "abo": 41265,
  "abol": 14923,
  "abolic": 26956,
  "abor": 3816,
  "abord": 26100,
  "about": 21970,
  "abouts": 41620,
  "abs": 17243,
  "abul": 14057,
  "abulary": 19189,
  "abus": 41797,
  "aby": 2509,
  "abyrin": 46800,
  "abyte": 34529,
  "abytes": 24538,
  "ac": 326,
  "aca": 6628,
  "acak": 10508,
  "acaks": 23825,
  "acaksÄ±n": 29703,
  "acakt": 40707,
  "acam": 47190,
  "acao": 50195,
  "acas": 43786,
  "acaÄŁ": 10064,
  "acaÄŁÄ±m": 16763,
  "acaÄŁÄ±z": 20800,
  "acc": 8476,
  "accept": 24870,
  "acceptable": 29888,
  "acci": 43870,
  "acciÃ³n": 49354,
  "acco": 18662,
  "accord": 19947,
  "ace": 617,
  "aced": 3839,
  "acement": 7621,
  "acements": 41140,
  "acer": 12858,
  "aces": 2116,
  "aceut": 23645,
  "aceutical": 24218,
  "acey": 29059,
  "ach": 608,
  "acha": 27442,
  "ache": 6000,
  "ached": 15095,
  "achel": 8188,
  "achelor": 15173,
  "achen": 11646,
  "acher": 4062,
  "aches": 13272,
  "achi": 21791,
  "achine": 34922,
  "aching": 2834,
  "achment": 23908,
  "acho": 46574,
  "achsen": 31625,
  "acht": 3589,
  "achte": 26136,
  "achten": 20806,
  "achtet": 48833,
  "achts": 47850,
  "achu": 29220,
  "achus": 19024,
  "achusetts": 19681,
  "aci": 22086,
  "acia": 28000,
  "acial": 25980,
  "acie": 30805,
  "acies": 20330,
  "acing": 5615,
  "acio": 24571,
  "acion": 18803,
  "acional": 13608,
  "aciones": 9188,
  "acions": 43724,
  "acious": 22641,
  "acity": 19008,
  "aciÃ³": 14915,
  "aciÃ³n": 3482,
  "acja": 23395,
  "acje": 29293,
  "acji": 13152,
  "acjÄĻ": 29924,
  "ack": 501,
  "acked": 25949,
  "acker": 23599,
  "acking": 14134,
  "acks": 7424,
  "acle": 7041,
  "acles": 9918,
  "aco": 11428,
  "acon": 18181,
  "acre": 27540,
  "acs": 44937,
  "act": 578,
  "acter": 14125,
  "actic": 19892,
  "acting": 41090,
  "action": 2894,
  "actions": 12299,
  "activ": 23397,
  "active": 12596,
  "actively": 45679,
  "actly": 46831,
  "actor": 15104,
  "actory": 21840,
  "acts": 15295,
  "actus": 34775,
  "acula": 41422,
  "acular": 14700,
  "acun": 34935,
  "acy": 2551,
  "acyj": 31285,
  "acz": 14875,
  "aczego": 39329,
  "aczy": 14691,
  "acÄ±": 47327,
  "acÄĥ": 44929,
  "ad": 345,
  "ada": 1538,
  "adaki": 48457,
  "adamente": 27858,
  "adan": 11338,
  "adas": 6872,
  "adata": 24695,
  "adays": 11113,
  "adaÅŁ": 16363,
  "add": 25224,
  "adder": 29901,
  "addin": 41284,
  "ade": 762,
  "adece": 25978,
  "aded": 12777,
  "adel": 16325,
  "adelph": 20598,
  "adelphia": 20850,
  "adem": 49290,
  "aden": 14771,
  "adequ": 34209,
  "ader": 8312,
  "aders": 15221,
  "ades": 2977,
  "adesh": 26338,
  "adh": 46908,
  "adi": 5688,
  "adia": 42343,
  "adian": 42985,
  "adic": 43341,
  "adin": 39961,
  "ading": 8166,
  "adium": 13534,
  "adle": 41212,
  "ado": 1573,
  "adomo": 40633,
  "ador": 5409,
  "adora": 23020,
  "adore": 49095,
  "adores": 11856,
  "adors": 29816,
  "ados": 4181,
  "adow": 11528,
  "adows": 33480,
  "adox": 23029,
  "ads": 5834,
  "adt": 14680,
  "adura": 25154,
  "ady": 880,
  "adÄ±": 35287,
  "adÄ±m": 33324,
  "ae": 8346,
  "aeda": 43973,
  "ael": 4300,
  "af": 2792,
  "afa": 19846,
  "afar": 47030,
  "afe": 24248,
  "aff": 2518,
  "affe": 23629,
  "affen": 19182,
  "affle": 29264,
  "affles": 40349,
  "afft": 29445,
  "afood": 21007,
  "after": 18837,
  "ag": 559,
  "aga": 9286,
  "again": 39372,
  "agan": 14167,
  "agar": 29124,
  "agara": 38816,
  "age": 609,
  "aged": 2980,
  "agem": 14767,
  "agement": 11129,
  "agen": 4698,
  "agens": 27936,
  "ager": 3557,
  "agers": 8776,
  "ages": 1660,
  "agger": 11062,
  "aggi": 46893,
  "aggio": 30763,
  "agh": 14842,
  "aghetti": 24402,
  "agi": 20291,
  "agine": 10260,
  "aging": 3568,
  "agit": 32730,
  "agle": 15088,
  "agles": 33300,
  "agn": 4535,
  "agna": 35697,
  "agne": 13887,
  "agner": 22720,
  "ago": 6442,
  "agog": 31599,
  "agogue": 42207,
  "agon": 6709,
  "agram": 3914,
  "ags": 12109,
  "agt": 7665,
  "agu": 31686,
  "agua": 48692,
  "ague": 4918,
  "agues": 7063,
  "agus": 32813,
  "agÄĻ": 40748,
  "ah": 545,
  "aha": 4408,
  "ahah": 11562,
  "ahaha": 15380,
  "ahahaha": 30284,
  "ahan": 21436,
  "ahh": 44251,
  "ahi": 27783,
  "ahl": 10722,
  "ahlen": 21128,
  "ahlt": 44950,
  "ahn": 12140,
  "aho": 25825,
  "ahon": 45080,
  "ahr": 5398,
  "ahren": 7079,
  "ahu": 12156,
  "ai": 1301,
  "aiah": 23657,
  "aid": 17810,
  "aide": 41980,
  "aient": 21368,
  "aign": 4897,
  "ail": 864,
  "ailable": 32699,
  "ailand": 18790,
  "ailed": 24731,
  "ailing": 23315,
  "ailleurs": 19400,
  "ails": 6227,
  "aime": 24461,
  "aimer": 43378,
  "ain": 491,
  "aina": 43054,
  "aine": 7119,
  "ained": 3563,
  "ainen": 30416,
  "aines": 19295,
  "aining": 3686,
  "ains": 2315,
  "aint": 5114,
  "ainted": 26278,
  "aints": 19594,
  "air": 1246,
  "aire": 9020,
  "aired": 22686,
  "aires": 10840,
  "airs": 4094,
  "airy": 47413,
  "ais": 1527,
  "aiser": 34786,
  "aisia": 47858,
  "aison": 29527,
  "aisse": 40714,
  "ait": 1001,
  "aj": 1805,
  "aja": 12908,
  "ajcie": 47276,
  "aje": 11153,
  "ajes": 29362,
  "aji": 29319,
  "ajo": 13440,
  "aju": 33166,
  "ajÄħ": 11133,
  "ajÄħc": 38757,
  "ak": 514,
  "aka": 7849,
  "akah": 40060,
  "akan": 14910,
  "akap": 49904,
  "akat": 39051,
  "ake": 619,
  "aked": 7301,
  "aken": 9846,
  "aker": 4003,
  "akers": 19552,
  "akes": 3419,
  "akh": 14532,
  "aki": 7421,
  "akin": 12709,
  "aking": 2456,
  "akis": 39128,
  "akk": 44310,
  "ako": 18501,
  "akov": 39879,
  "akra": 34401,
  "aks": 5461,
  "aksi": 45042,
  "akt": 5886,
  "akte": 48036,
  "akter": 33557,
  "aktu": 37535,
  "aku": 15803,
  "akukan": 42774,
  "aky": 15681,
  "al": 304,
  "ala": 5159,
  "alah": 16434,
  "alal": 43753,
  "alam": 23819,
  "alan": 14163,
  "aland": 12789,
  "alar": 12031,
  "alarÄ±": 47289,
  "alay": 35951,
  "ald": 3976,
  "aldo": 37623,
  "ale": 1220,
  "aleb": 26053,
  "aled": 5573,
  "alen": 21745,
  "aler": 17148,
  "ales": 4229,
  "alet": 49744,
  "aley": 29172,
  "alez": 37646,
  "aleÅ¼": 45494,
  "aleÅ¼y": 37169,
  "alf": 1678,
  "alg": 20422,
  "algia": 30928,
  "algic": 38010,
  "ali": 5103,
  "alia": 15579,
  "alid": 31509,
  "alie": 21980,
  "alies": 48872,
  "alin": 24861,
  "aling": 4270,
  "alion": 35791,
  "alis": 48581,
  "alities": 16110,
  "alition": 31897,
  "ality": 1860,
  "aliÅĽmy": 33955,
  "alk": 667,
  "all": 336,
  "alla": 10352,
  "allah": 13492,
  "allahi": 24079,
  "allas": 19394,
  "alle": 11780,
  "alled": 8907,
  "allen": 31181,
  "aller": 22414,
  "alles": 37927,
  "alley": 7762,
  "alling": 24021,
  "allo": 37104,
  "allow": 13253,
  "allows": 38811,
  "alls": 39655,
  "ally": 379,
  "aln": 39980,
  "alnya": 38656,
  "alnÄ±z": 42751,
  "alo": 10334,
  "alog": 44434,
  "alom": 40780,
  "alon": 34979,
  "alone": 24806,
  "alous": 11553,
  "als": 1124,
  "alsa": 24816,
  "also": 41551,
  "alt": 3198,
  "alta": 37896,
  "alted": 35906,
  "alten": 23276,
  "alter": 43420,
  "altet": 39931,
  "alth": 1302,
  "alties": 26471,
  "altra": 38865,
  "altres": 31425,
  "altro": 47484,
  "alts": 49489,
  "altung": 29631,
  "alu": 4929,
  "aluable": 38060,
  "aly": 5222,
  "alyst": 19530,
  "alÄ±": 26778,
  "alÄ±m": 12714,
  "am": 335,
  "ama": 2404,
  "amaan": 41270,
  "amam": 31608,
  "aman": 6147,
  "amar": 45207,
  "amas": 19473,
  "amat": 39143,
  "amation": 30477,
  "amaz": 30148,
  "amb": 2173,
  "amba": 23337,
  "ambled": 43390,
  "ambling": 19391,
  "ambre": 48230,
  "ame": 529,
  "amed": 3475,
  "amel": 16103,
  "amen": 22403,
  "ament": 2466,
  "amental": 44538,
  "amente": 3439,
  "amento": 8824,
  "amentos": 28775,
  "aments": 28401,
  "amer": 13530,
  "ames": 1632,
  "amet": 49083,
  "ami": 4526,
  "amic": 20726,
  "amiento": 16971,
  "amientos": 43466,
  "amiliar": 27393,
  "amily": 30282,
  "amin": 7428,
  "amine": 18929,
  "aming": 5184,
  "amis": 47971,
  "amiÄĻ": 23806,
  "amm": 5136,
  "ammad": 15481,
  "ammed": 19859,
  "ammen": 11248,
  "amment": 20619,
  "ammers": 48414,
  "amo": 10502,
  "amorph": 50232,
  "amos": 2151,
  "amoto": 35858,
  "amour": 42921,
  "amous": 22314,
  "amp": 1215,
  "ampa": 26625,
  "amped": 36970,
  "ampf": 30157,
  "ampoo": 25168,
  "amps": 23150,
  "ams": 4070,
  "amt": 16887,
  "amura": 43914,
  "amus": 45897,
  "amy": 7804,
  "amÄ±": 48688,
  "amÄ±z": 42449,
  "an": 282,
  "ana": 2095,
  "anal": 29702,
  "anan": 29915,
  "anas": 14292,
  "anbul": 35335,
  "anc": 4463,
  "anca": 40835,
  "ance": 719,
  "anced": 4864,
  "ancer": 28347,
  "ances": 2676,
  "anch": 4778,
  "anche": 22806,
  "anci": 38840,
  "ancia": 22862,
  "ancial": 22716,
  "ancies": 32286,
  "ancing": 8779,
  "anco": 34300,
  "ancy": 6717,
  "and": 474,
  "anda": 5575,
  "andaag": 37033,
  "andal": 18905,
  "andan": 39762,
  "ande": 11123,
  "andel": 26406,
  "anden": 28762,
  "ander": 4483,
  "anders": 41430,
  "andez": 37003,
  "andi": 49460,
  "andid": 48810,
  "andin": 37563,
  "anding": 42389,
  "ando": 1806,
  "andom": 4606,
  "andon": 8518,
  "andra": 18401,
  "andro": 29173,
  "ands": 2967,
  "andy": 11425,
  "andÄ±r": 49428,
  "ane": 1929,
  "aneous": 15447,
  "aneously": 13131,
  "anes": 12779,
  "aney": 40584,
  "ang": 656,
  "anga": 26005,
  "angan": 17017,
  "ange": 933,
  "anged": 10296,
  "angel": 14282,
  "angen": 10784,
  "anger": 3176,
  "angers": 11186,
  "anges": 10350,
  "angi": 43481,
  "anging": 9741,
  "angle": 7846,
  "angled": 39101,
  "ango": 17150,
  "angs": 28686,
  "anguard": 36259,
  "anh": 50214,
  "anha": 37899,
  "ani": 3782,
  "ania": 5609,
  "anic": 30732,
  "anie": 7155,
  "anim": 17869,
  "aning": 8415,
  "anish": 7524,
  "aniu": 25849,
  "anium": 21528,
  "anja": 48675,
  "ank": 657,
  "anka": 21729,
  "anken": 18493,
  "anki": 27203,
  "ankind": 40588,
  "anking": 29411,
  "anks": 14592,
  "ann": 969,
  "anna": 1795,
  "annah": 15143,
  "anne": 12674,
  "anned": 5943,
  "annel": 11444,
  "annen": 44792,
  "anner": 9805,
  "anners": 25792,
  "anni": 35832,
  "annie": 43433,
  "anno": 13484,
  "annon": 16138,
  "annt": 39878,
  "anny": 11612,
  "annya": 24225,
  "annÃ©e": 36533,
  "ano": 3730,
  "anor": 29330,
  "anos": 31035,
  "anov": 38990,
  "ans": 599,
  "ansa": 38734,
  "ansas": 14527,
  "anse": 47661,
  "ansen": 49247,
  "anship": 27140,
  "ansing": 44829,
  "anska": 30074,
  "anson": 34195,
  "anst": 41384,
  "answer": 43904,
  "ant": 394,
  "anta": 5983,
  "antage": 4370,
  "antal": 40542,
  "antas": 49153,
  "ante": 2879,
  "anted": 15587,
  "antee": 10527,
  "anten": 29646,
  "anter": 39918,
  "antes": 9327,
  "antha": 31303,
  "anti": 11520,
  "antic": 7128,
  "antically": 49505,
  "antics": 45298,
  "antine": 13566,
  "anting": 18571,
  "antis": 37952,
  "antly": 3627,
  "anto": 5857,
  "antom": 25796,
  "anton": 46041,
  "antry": 42057,
  "ants": 1719,
  "antu": 47846,
  "antwort": 21655,
  "anu": 48136,
  "anut": 35352,
  "any": 1325,
  "anya": 8791,
  "anyak": 23031,
  "anych": 34644,
  "anyon": 28070,
  "anz": 3910,
  "anza": 20030,
  "anÃ§": 12368,
  "anÃ§a": 22930,
  "anÃ§ais": 17032,
  "anÄ±": 35869,
  "anÄ±n": 26081,
  "anÄ±z": 36079,
  "ao": 25548,
  "ap": 569,
  "apa": 7961,
  "apan": 3140,
  "apanese": 30873,
  "apat": 22602,
  "ape": 41153,
  "aped": 18653,
  "aper": 2332,
  "apers": 14441,
  "aph": 13957,
  "aphor": 18560,
  "aphrag": 45557,
  "api": 35891,
  "apo": 37615,
  "apolis": 26296,
  "apon": 21319,
  "apons": 48071,
  "apor": 13345,
  "apore": 13823,
  "app": 1746,
  "appa": 25637,
  "appe": 46408,
  "apped": 20780,
  "appelle": 25543,
  "apper": 34456,
  "apping": 10534,
  "applause": 9138,
  "apple": 21316,
  "appro": 35821,
  "appropri": 21771,
  "appy": 27425,
  "aprÃ¨s": 48240,
  "aps": 2382,
  "apse": 11145,
  "apt": 2796,
  "apter": 5446,
  "aqu": 23761,
  "aque": 23179,
  "ar": 289,
  "ara": 2419,
  "arah": 34420,
  "arak": 23346,
  "aram": 12835,
  "aran": 17142,
  "araoh": 34788,
  "aras": 35867,
  "arat": 18452,
  "araus": 46483,
  "arb": 31630,
  "arbeit": 24024,
  "arbeiten": 43918,
  "arc": 40088,
  "arch": 1178,
  "arching": 36499,
  "archy": 13988,
  "ard": 515,
  "arda": 19218,
  "ardan": 24087,
  "arde": 10866,
  "arded": 22803,
  "arden": 28086,
  "ardeÅŁ": 21027,
  "ardi": 38126,
  "ardo": 12850,
  "ardon": 14848,
  "ards": 2287,
  "ardÄ±": 47676,
  "are": 543,
  "area": 35425,
  "ared": 1642,
  "arel": 37675,
  "arella": 34704,
  "arem": 19183,
  "aremos": 23118,
  "aren": 4484,
  "arena": 19500,
  "arent": 1898,
  "arenth": 20616,
  "arently": 6420,
  "arents": 15121,
  "ares": 8643,
  "arespace": 45337,
  "arest": 17363,
  "aret": 11298,
  "areth": 40414,
  "arett": 25033,
  "arette": 23362,
  "arettes": 26282,
  "arez": 39948,
  "arf": 30224,
  "arg": 33544,
  "argent": 29757,
  "ari": 3504,
  "aria": 9831,
  "arial": 44745,
  "ariamente": 45149,
  "arian": 10652,
  "arians": 24831,
  "arias": 35027,
  "ariat": 41115,
  "aries": 4889,
  "ariest": 45556,
  "arily": 3289,
  "arin": 19829,
  "arina": 37512,
  "aring": 1921,
  "ario": 4912,
  "arios": 9720,
  "aris": 27489,
  "arity": 17409,
  "arium": 19612,
  "arius": 27440,
  "ark": 809,
  "arkan": 45173,
  "arken": 38962,
  "arks": 20851,
  "arl": 6843,
  "arla": 34148,
  "arle": 36153,
  "arlo": 19457,
  "arlos": 39734,
  "arm": 4452,
  "arma": 36159,
  "arme": 35890,
  "armed": 38375,
  "arms": 19537,
  "arn": 1083,
  "arna": 21394,
  "arner": 22916,
  "arness": 16937,
  "arning": 2341,
  "arnish": 40686,
  "arnos": 24979,
  "arnt": 18045,
  "arnya": 38039,
  "aro": 9708,
  "aron": 6372,
  "aroo": 47937,
  "aros": 48970,
  "around": 25762,
  "arp": 6529,
  "arr": 2284,
  "arrass": 8596,
  "arrator": 7215,
  "arre": 15531,
  "arring": 18285,
  "arrive": 47614,
  "arry": 25516,
  "ars": 685,
  "arsa": 29720,
  "arse": 11668,
  "arsh": 7064,
  "arsi": 32742,
  "arson": 19358,
  "art": 446,
  "arta": 19061,
  "arte": 11026,
  "arted": 47350,
  "arten": 11719,
  "arter": 13631,
  "artet": 32347,
  "arth": 18352,
  "arthy": 42305,
  "arti": 40155,
  "artment": 3033,
  "arto": 15864,
  "arts": 11814,
  "artz": 45929,
  "aru": 16870,
  "arus": 31241,
  "ary": 822,
  "arya": 29313,
  "aryn": 39008,
  "arz": 49763,
  "arÃ¡": 21534,
  "arÃ©": 36832,
  "arÃŃa": 21178,
  "arÄ±": 18318,
  "arÄ±m": 31260,
  "as": 296,
  "asa": 9994,
  "asaki": 44366,
  "asan": 40336,
  "asant": 10633,
  "asc": 4806,
  "ascal": 27303,
  "ascular": 22084,
  "ase": 651,
  "ased": 1937,
  "aser": 17756,
  "ases": 1957,
  "ash": 1299,
  "asha": 12137,
  "ashed": 12219,
  "ashes": 12808,
  "ashi": 15612,
  "ashing": 11077,
  "ashion": 5894,
  "asi": 8483,
  "asia": 25251,
  "asil": 13353,
  "asing": 3349,
  "asion": 6822,
  "asis": 26632,
  "asive": 23686,
  "ask": 3863,
  "aska": 13400,
  "asket": 26207,
  "asking": 47211,
  "asm": 14774,
  "asma": 17494,
  "asmine": 28151,
  "aso": 35281,
  "ason": 1258,
  "asonable": 36169,
  "asonic": 39460,
  "asons": 3646,
  "asp": 9375,
  "aspberry": 26240,
  "ass": 640,
  "assa": 18948,
  "assador": 16827,
  "assadors": 38982,
  "asse": 8604,
  "assed": 46447,
  "assemb": 29386,
  "assemble": 37319,
  "assen": 8356,
  "asser": 12129,
  "asses": 26615,
  "assic": 35685,
  "assing": 42705,
  "assis": 25844,
  "assium": 27609,
  "associ": 49146,
  "asst": 48435,
  "assumed": 45714,
  "assung": 40828,
  "assy": 20712,
  "ast": 525,
  "asta": 12468,
  "aste": 9079,
  "asted": 34440,
  "asten": 47552,
  "aster": 1727,
  "astern": 32579,
  "asters": 18817,
  "astes": 40246,
  "asti": 24080,
  "astian": 28129,
  "astic": 2750,
  "astically": 22808,
  "astics": 21598,
  "asting": 30587,
  "asto": 33869,
  "astre": 49199,
  "asts": 20765,
  "asty": 9820,
  "asu": 45612,
  "asure": 2508,
  "asures": 20044,
  "asury": 25058,
  "asy": 5871,
  "asz": 19601,
  "asÄ±": 12700,
  "asÄ±na": 47973,
  "asÄ±nda": 33119,
  "at": 267,
  "ata": 3274,
  "atable": 31415,
  "atal": 40478,
  "atamente": 25354,
  "atan": 25649,
  "atar": 12051,
  "atas": 37892,
  "atch": 852,
  "atched": 24102,
  "atcher": 49871,
  "atchet": 36080,
  "atching": 29569,
  "ate": 473,
  "ated": 770,
  "ateful": 7529,
  "ateg": 2968,
  "ategory": 48701,
  "atell": 10810,
  "ately": 1592,
  "atem": 26851,
  "aten": 7186,
  "ater": 771,
  "ateral": 17274,
  "aterial": 40364,
  "aters": 16749,
  "ates": 1024,
  "ateur": 15540,
  "ateurs": 25929,
  "atever": 7969,
  "atge": 45993,
  "ath": 998,
  "atha": 29441,
  "athan": 9390,
  "ather": 1172,
  "atherine": 16351,
  "athers": 11850,
  "athi": 42715,
  "athlon": 41269,
  "athon": 18660,
  "athy": 9527,
  "ati": 6908,
  "atic": 2399,
  "atically": 5030,
  "atics": 30292,
  "atie": 16921,
  "atif": 36850,
  "atile": 17445,
  "atility": 20758,
  "atin": 22685,
  "ating": 990,
  "ation": 399,
  "ational": 1478,
  "ations": 763,
  "atique": 20728,
  "atiques": 48731,
  "atisf": 25239,
  "atisfied": 38502,
  "ativ": 10662,
  "ativa": 18740,
  "ativas": 35725,
  "ative": 1166,
  "atively": 19020,
  "atives": 4884,
  "ativity": 30142,
  "ativo": 18586,
  "ativos": 36945,
  "atk": 33525,
  "atl": 48630,
  "ato": 2513,
  "atoire": 45575,
  "aton": 25781,
  "atoon": 37586,
  "ator": 1639,
  "atore": 43148,
  "atori": 39842,
  "atories": 30077,
  "atorio": 48028,
  "atorium": 41679,
  "ators": 3391,
  "atory": 4745,
  "atos": 26818,
  "atra": 33593,
  "atre": 10837,
  "atri": 31674,
  "atro": 14629,
  "ats": 1720,
  "atson": 23939,
  "atsu": 29023,
  "atsÃ¤chlich": 19579,
  "att": 1591,
  "atta": 18405,
  "attack": 44514,
  "attan": 21135,
  "atte": 30466,
  "atted": 32509,
  "atten": 32733,
  "attend": 49548,
  "atter": 1161,
  "attered": 13939,
  "attering": 14849,
  "atters": 37690,
  "attform": 49952,
  "atti": 21515,
  "attle": 3327,
  "atto": 37491,
  "attutto": 48285,
  "atu": 20546,
  "atur": 19493,
  "atura": 19660,
  "ature": 1503,
  "atures": 3377,
  "atus": 37926,
  "aty": 21398,
  "atz": 10300,
  "au": 1459,
  "auc": 7113,
  "aucoup": 8611,
  "aud": 3751,
  "audience": 4834,
  "audio": 46069,
  "auen": 11715,
  "auer": 18120,
  "auf": 9507,
  "aufen": 20748,
  "auft": 28245,
  "aug": 20056,
  "auge": 16558,
  "aukee": 33581,
  "ault": 5107,
  "aupt": 13343,
  "aur": 3463,
  "aurais": 44608,
  "aurus": 40913,
  "aus": 8463,
  "ause": 5241,
  "auso": 32310,
  "aut": 1375,
  "auth": 40198,
  "author": 34224,
  "auto": 41988,
  "autre": 19702,
  "autres": 16752,
  "aux": 7511,
  "av": 706,
  "ava": 4061,
  "avais": 18866,
  "avait": 38307,
  "aval": 46868,
  "avam": 22561,
  "avan": 21071,
  "avana": 29867,
  "avant": 35034,
  "avas": 37331,
  "avat": 39559,
  "avaÅŁ": 38733,
  "ave": 946,
  "aved": 12865,
  "aven": 4940,
  "aver": 20655,
  "aves": 5423,
  "avez": 25975,
  "avi": 18442,
  "avia": 23015,
  "avian": 43108,
  "avic": 41053,
  "avier": 25384,
  "avil": 22891,
  "avilion": 39388,
  "avin": 19249,
  "aving": 6152,
  "avior": 38387,
  "avirus": 10868,
  "avo": 25713,
  "avoir": 17239,
  "avor": 1924,
  "avored": 22120,
  "avors": 11759,
  "avour": 6817,
  "avy": 15498,
  "avÃŃa": 26594,
  "aw": 1607,
  "awa": 10449,
  "awan": 41814,
  "aware": 17074,
  "awat": 38036,
  "away": 10318,
  "aways": 27545,
  "awi": 38402,
  "awia": 34953,
  "awk": 31451,
  "awl": 47451,
  "awn": 11251,
  "awning": 35880,
  "aws": 12282,
  "awsze": 28354,
  "awy": 41961,
  "ax": 2797,
  "axis": 24633,
  "axter": 47333,
  "axy": 9191,
  "ay": 320,
  "aya": 4427,
  "ayan": 20506,
  "ayd": 43389,
  "aye": 33449,
  "ayed": 47315,
  "ayer": 11167,
  "aying": 32600,
  "ayo": 48947,
  "ays": 3772,
  "ayÄ±": 18376,
  "ayÄ±m": 16797,
  "az": 921,
  "aza": 12257,
  "azar": 22795,
  "aze": 13660,
  "azed": 17262,
  "azi": 26637,
  "azing": 2118,
  "azione": 12928,
  "azioni": 27569,
  "azo": 29722,
  "azon": 6317,
  "azu": 8813,
  "azuje": 43317,
  "azy": 33235,
  "azz": 9112,
  "azzi": 33910,
  "aÃ§Ã£o": 6670,
  "aÃ§Ãµes": 17971,
  "aÃ±": 23217,
  "aÄĩ": 43379,
  "aÄŁÄ±": 42247,
  "aÅ¼": 18264,
  "aÅŁ": 41149,
  "b": 65,
  "ba": 4231,
  "baar": 43468,
  "bab": 24301,
  "baby": 35036,
  "bach": 32096,
  "back": 3207,
  "background": 44418,
  "backs": 17758,
  "bad": 27580,
  "bag": 17282,
  "bagai": 39923,
  "bage": 9742,
  "bags": 44047,
  "bah": 37346,
  "bahn": 39865,
  "bai": 35144,
  "bait": 41274,
  "baj": 9338,
  "bak": 44111,
  "bal": 2645,
  "balance": 29215,
  "balanced": 40251,
  "ball": 3129,
  "balls": 19194,
  "ban": 5144,
  "band": 4235,
  "bands": 30014,
  "bane": 28116,
  "bang": 20106,
  "bank": 25423,
  "bar": 5356,
  "bard": 29984,
  "bardziej": 40392,
  "bare": 30682,
  "baren": 43552,
  "bars": 42162,
  "bart": 47504,
  "bas": 16342,
  "base": 17429,
  "based": 6032,
  "bat": 11980,
  "bau": 26820,
  "baum": 46641,
  "bay": 42484,
  "bb": 6692,
  "bbe": 39042,
  "bbie": 32383,
  "bble": 10387,
  "bbles": 45176,
  "be": 650,
  "bean": 17097,
  "beans": 40488,
  "bear": 26738,
  "beat": 4169,
  "bec": 8123,
  "because": 17566,
  "becca": 17073,
  "becue": 20102,
  "bed": 2883,
  "bedingt": 39295,
  "bee": 24872,
  "beeld": 34040,
  "beep": 13537,
  "beeping": 43616,
  "before": 45301,
  "beh": 29437,
  "bei": 21845,
  "being": 13054,
  "beit": 9407,
  "beiten": 16779,
  "beiter": 29565,
  "beitet": 32401,
  "beits": 21604,
  "bek": 25714,
  "bel": 5390,
  "believ": 12230,
  "believable": 13729,
  "believably": 41268,
  "bell": 7100,
  "bels": 38383,
  "belt": 42593,
  "ben": 1799,
  "bench": 47244,
  "bene": 41605,
  "ber": 607,
  "bere": 18582,
  "bereich": 48422,
  "berg": 6873,
  "berger": 42226,
  "berish": 43189,
  "berly": 32907,
  "bern": 26848,
  "bero": 46659,
  "berries": 15290,
  "berry": 9099,
  "bers": 1616,
  "bert": 4290,
  "berty": 48501,
  "bery": 26736,
  "bes": 6446,
  "besondere": 44222,
  "best": 25331,
  "bet": 10671,
  "between": 32387,
  "bew": 47465,
  "bey": 13502,
  "bi": 5614,
  "bia": 26975,
  "bian": 20196,
  "bie": 7392,
  "bies": 23177,
  "big": 37660,
  "bij": 30418,
  "bike": 30283,
  "bil": 15384,
  "bild": 16248,
  "bildung": 35588,
  "bilir": 30959,
  "bility": 39802,
  "bin": 13496,
  "binary": 48621,
  "bing": 4324,
  "bins": 49198,
  "bior": 33362,
  "bir": 10119,
  "bird": 18080,
  "birds": 31473,
  "birth": 29367,
  "bish": 27074,
  "bit": 5260,
  "bits": 34010,
  "bl": 5199,
  "bla": 36138,
  "black": 36141,
  "blade": 41825,
  "ble": 638,
  "bled": 18320,
  "bleep": 14639,
  "blem": 1113,
  "bles": 8806,
  "bli": 32117,
  "blic": 11489,
  "blick": 38263,
  "blind": 47494,
  "bling": 18262,
  "blo": 15962,
  "block": 28830,
  "blowing": 43788,
  "blue": 42113,
  "bly": 25021,
  "bn": 19404,
  "bnb": 36237,
  "bo": 1763,
  "board": 3787,
  "boarding": 43925,
  "boards": 17228,
  "boat": 31883,
  "bod": 47466,
  "body": 1067,
  "bok": 21666,
  "bokki": 31487,
  "bol": 17460,
  "bold": 42515,
  "bolt": 39477,
  "bon": 4351,
  "bone": 19782,
  "bones": 44954,
  "bons": 33568,
  "boo": 19985,
  "book": 2939,
  "books": 15170,
  "boom": 48969,
  "bor": 3918,
  "borah": 37288,
  "borg": 33151,
  "born": 10324,
  "borne": 23739,
  "boro": 46669,
  "borough": 24987,
  "bot": 18870,
  "both": 18151,
  "bound": 18767,
  "bour": 15533,
  "bourg": 43638,
  "bourne": 24905,
  "bout": 30722,
  "bow": 8202,
  "bows": 21118,
  "box": 4995,
  "boxing": 45047,
  "boy": 12795,
  "boys": 31638,
  "br": 1443,
  "bra": 6198,
  "bracht": 23404,
  "brahim": 38837,
  "bral": 32728,
  "brance": 39829,
  "brand": 30476,
  "brar": 30280,
  "bras": 38182,
  "bre": 2672,
  "bread": 31051,
  "break": 13225,
  "breaker": 43847,
  "breaking": 20602,
  "breaks": 35656,
  "breat": 47674,
  "bres": 46823,
  "brevi": 34471,
  "brid": 11349,
  "bridge": 18249,
  "brig": 21674,
  "bright": 21553,
  "bringen": 39455,
  "bringing": 44992,
  "bro": 9120,
  "broken": 37947,
  "bros": 29781,
  "bru": 7294,
  "brush": 21330,
  "bs": 929,
  "bsp": 22424,
  "bst": 9690,
  "bt": 4517,
  "bu": 6021,
  "buat": 45143,
  "buch": 39742,
  "bucks": 24599,
  "bud": 18281,
  "buds": 36608,
  "bug": 44455,
  "buh": 47322,
  "build": 11516,
  "building": 28126,
  "built": 23018,
  "bul": 12176,
  "bula": 37775,
  "bull": 37290,
  "bum": 5559,
  "bumps": 41655,
  "bung": 36776,
  "bur": 13243,
  "burg": 8342,
  "burger": 41787,
  "burgh": 21898,
  "burn": 21763,
  "burse": 37665,
  "burst": 46239,
  "bury": 22536,
  "bus": 21441,
  "buster": 41148,
  "but": 5955,
  "buz": 21941,
  "buzzer": 24845,
  "by": 2322,
  "bye": 6650,
  "bÃ©": 27166,
  "bÃ¼r": 49057,
  "c": 66,
  "ca": 496,
  "cade": 30340,
  "cado": 27713,
  "cak": 27481,
  "cake": 13994,
  "cakes": 18853,
  "cal": 9895,
  "cale": 37088,
  "call": 45459,
  "called": 11880,
  "calm": 45142,
  "cam": 14177,
  "came": 3005,
  "camera": 31135,
  "camp": 24640,
  "can": 7035,
  "cando": 29585,
  "cano": 18651,
  "cap": 9485,
  "cape": 4747,
  "car": 6166,
  "carbon": 39294,
  "card": 22259,
  "cards": 40604,
  "care": 5685,
  "cart": 44672,
  "cas": 16369,
  "case": 9765,
  "cases": 46505,
  "cast": 3734,
  "caster": 42640,
  "casting": 48860,
  "cat": 18035,
  "cation": 46252,
  "cause": 523,
  "caust": 27661,
  "cave": 50126,
  "cc": 1914,
  "cca": 22394,
  "cciones": 35560,
  "cciÃ³n": 14735,
  "cco": 49552,
  "ccoli": 26334,
  "ce": 384,
  "cean": 6428,
  "ceans": 22928,
  "ced": 1232,
  "cede": 29815,
  "cedented": 21170,
  "cedes": 21526,
  "ceed": 4357,
  "cej": 20811,
  "cek": 12135,
  "ceks": 26428,
  "ceksin": 32961,
  "cekt": 47179,
  "cel": 4933,
  "celand": 27673,
  "cell": 4164,
  "cellence": 17379,
  "cellent": 5866,
  "cely": 42879,
  "cem": 26422,
  "cember": 7432,
  "cemos": 38173,
  "cen": 13037,
  "cence": 25434,
  "cend": 21153,
  "cendo": 33199,
  "cent": 2207,
  "center": 50085,
  "centered": 36814,
  "centric": 45300,
  "cents": 36976,
  "century": 32889,
  "cep": 27493,
  "cept": 1336,
  "ception": 7311,
  "ceptions": 22393,
  "cer": 1776,
  "cera": 41034,
  "ceral": 47879,
  "cere": 15312,
  "cers": 8530,
  "cert": 48999,
  "ces": 887,
  "cess": 780,
  "cession": 29881,
  "cesso": 43611,
  "cessor": 25432,
  "cessors": 45700,
  "ceu": 31271,
  "ceÄŁ": 19342,
  "ceÄŁim": 16807,
  "ceÄŁiz": 24746,
  "ch": 339,
  "cha": 4413,
  "chae": 44521,
  "chaft": 7118,
  "chain": 11509,
  "chair": 17892,
  "chan": 3484,
  "change": 15431,
  "changing": 27123,
  "chant": 24628,
  "char": 7374,
  "charge": 13604,
  "charged": 25064,
  "charger": 48942,
  "chas": 41299,
  "chat": 20057,
  "chau": 33276,
  "che": 1876,
  "check": 15723,
  "ched": 19318,
  "cheer": 43088,
  "cheerful": 45685,
  "cheering": 18700,
  "cheers": 28857,
  "chem": 17345,
  "chemical": 34114,
  "chemistry": 48353,
  "chen": 2470,
  "cher": 6759,
  "ches": 3781,
  "chest": 11762,
  "chester": 17022,
  "chet": 36433,
  "chez": 30196,
  "chi": 8036,
  "chied": 11805,
  "chieden": 40433,
  "chief": 30189,
  "chien": 33972,
  "child": 15129,
  "children": 21172,
  "chin": 32167,
  "chine": 36675,
  "ching": 17354,
  "chio": 31033,
  "chl": 11439,
  "chlag": 40869,
  "chlagen": 44496,
  "chlossen": 29002,
  "chluss": 41372,
  "chmal": 25751,
  "chn": 1377,
  "chnet": 46248,
  "chnitt": 32064,
  "cho": 5738,
  "chod": 29914,
  "chodzi": 34616,
  "chool": 21856,
  "chos": 27251,
  "chron": 14613,
  "chs": 28346,
  "chsel": 21266,
  "cht": 4701,
  "chte": 10553,
  "chten": 21043,
  "chter": 26690,
  "chts": 19549,
  "chu": 29013,
  "chuck": 25340,
  "chuckles": 12927,
  "chuckling": 32312,
  "chuss": 36695,
  "chutz": 34816,
  "chw": 34655,
  "chy": 28629,
  "chÃ©": 11131,
  "chÄĻ": 23006,
  "ci": 537,
  "cia": 2755,
  "cial": 1013,
  "cially": 1909,
  "ciamo": 42052,
  "cias": 12046,
  "ciaÅ¼": 42673,
  "cible": 32128,
  "cida": 37200,
  "cido": 17994,
  "cidos": 46579,
  "cie": 4260,
  "cience": 6699,
  "ciendo": 16830,
  "cient": 5412,
  "cier": 27674,
  "cies": 4629,
  "cieÅ¼": 40082,
  "cific": 22856,
  "cil": 3208,
  "cile": 28886,
  "ciliation": 27870,
  "cill": 7383,
  "cimento": 28317,
  "cin": 20021,
  "cing": 2175,
  "cio": 8529,
  "cion": 10015,
  "cional": 42395,
  "ciones": 23469,
  "cios": 23132,
  "cious": 4139,
  "cip": 11371,
  "cipe": 46687,
  "cipher": 41763,
  "cipl": 19246,
  "ciplinary": 24560,
  "cir": 23568,
  "cis": 26720,
  "cision": 40832,
  "cit": 45135,
  "cito": 32030,
  "city": 26536,
  "ciu": 30795,
  "cium": 19324,
  "ciÃ³": 19609,
  "ciÃ³n": 5687,
  "ciÄħ": 34381,
  "ciÄĩ": 39162,
  "ciÄŁim": 47726,
  "cja": 34056,
  "cje": 44261,
  "cji": 19649,
  "cjon": 45677,
  "cjÄĻ": 41960,
  "ck": 547,
  "cka": 39342,
  "cke": 18627,
  "cked": 44118,
  "cken": 13029,
  "cker": 9178,
  "cket": 4737,
  "ckets": 11984,
  "cking": 25723,
  "cknow": 7678,
  "cko": 41416,
  "cks": 2761,
  "cksÃ¥": 13238,
  "ckt": 19951,
  "cl": 3474,
  "cla": 46265,
  "clamation": 41411,
  "clapping": 31293,
  "class": 11665,
  "cle": 2160,
  "clear": 43679,
  "clears": 43496,
  "cled": 24804,
  "cles": 6520,
  "click": 18548,
  "cling": 12455,
  "clip": 21614,
  "clipse": 27197,
  "clock": 9023,
  "clockwise": 48685,
  "cloud": 44495,
  "club": 40607,
  "cm": 15210,
  "cn": 16279,
  "co": 1291,
  "coal": 28037,
  "coat": 36788,
  "cock": 29779,
  "cod": 26560,
  "code": 22332,
  "cohol": 7210,
  "coin": 8562,
  "coins": 36989,
  "col": 8768,
  "cole": 27247,
  "coll": 33891,
  "colm": 32274,
  "colo": 46086,
  "color": 23851,
  "colored": 42820,
  "com": 1112,
  "comb": 38763,
  "come": 1102,
  "comed": 22726,
  "comes": 9055,
  "comfort": 27289,
  "coming": 6590,
  "comings": 49886,
  "comm": 13278,
  "commerce": 26926,
  "committee": 47235,
  "commun": 25451,
  "comp": 21541,
  "compass": 25052,
  "compl": 43856,
  "con": 1671,
  "cond": 18882,
  "conds": 28750,
  "conduct": 38150,
  "conf": 24697,
  "confidence": 47273,
  "cong": 40275,
  "connect": 9826,
  "cono": 45846,
  "conom": 2291,
  "conomic": 31646,
  "cons": 21190,
  "conscious": 19877,
  "const": 25279,
  "cont": 9000,
  "control": 40905,
  "controlled": 49344,
  "cool": 28155,
  "coon": 48092,
  "cop": 13084,
  "cope": 13960,
  "cor": 19558,
  "core": 12352,
  "corn": 21427,
  "cos": 6877,
  "cost": 27718,
  "cot": 48477,
  "cott": 34000,
  "count": 26050,
  "country": 39337,
  "course": 31913,
  "cous": 39939,
  "cover": 12516,
  "covery": 21352,
  "cr": 10757,
  "cra": 39302,
  "craft": 5611,
  "crates": 50243,
  "cre": 14066,
  "cream": 30277,
  "creat": 35546,
  "crew": 28909,
  "cri": 1142,
  "cribe": 8056,
  "cribed": 18732,
  "cribing": 39541,
  "cript": 5944,
  "cription": 12432,
  "criptions": 34173,
  "crire": 39572,
  "crit": 32255,
  "cro": 23401,
  "cros": 42471,
  "cross": 35418,
  "crosstalk": 49782,
  "crowd": 14779,
  "cry": 46555,
  "cs": 14368,
  "ct": 349,
  "ctar": 46412,
  "ctic": 15518,
  "ctica": 29041,
  "cticamente": 50250,
  "ction": 882,
  "ctional": 41048,
  "ctions": 3916,
  "ctive": 20221,
  "ctor": 1672,
  "ctoral": 20946,
  "ctors": 5547,
  "ctory": 35758,
  "cture": 42919,
  "cu": 12032,
  "cue": 31765,
  "cul": 2444,
  "cular": 17792,
  "cules": 11570,
  "culiar": 26626,
  "culo": 25436,
  "culos": 32397,
  "culosis": 49379,
  "cultural": 50155,
  "culus": 36002,
  "cup": 16794,
  "cur": 14112,
  "current": 49827,
  "cus": 1149,
  "cuss": 2169,
  "cussion": 25049,
  "cussions": 38899,
  "cut": 6672,
  "cuts": 26158,
  "cuz": 49789,
  "cy": 1344,
  "cych": 31306,
  "cycl": 34080,
  "cycle": 14796,
  "cycles": 41661,
  "cyj": 42949,
  "cz": 3689,
  "cza": 41524,
  "czas": 30989,
  "cze": 9680,
  "czenia": 38517,
  "czenie": 39043,
  "czne": 38491,
  "cznie": 19923,
  "czy": 6522,
  "czywiÅĽcie": 15997,
  "czyÄĩ": 33967,
  "czÄĻ": 41151,
  "cÃ©": 13523,
  "cÃ³mo": 46614,
  "cÃ³w": 29268,
  "cÃ¼": 49694,
  "cÃŃa": 31298,
  "cÄ±": 31803,
  "cÄ±k": 47587,
  "cÄħ": 32557,
  "cÄĻ": 37965,
  "d": 67,
  "da": 2675,
  "dad": 20034,
  "dade": 45894,
  "dag": 39877,
  "dah": 40232,
  "dal": 36694,
  "dale": 30534,
  "dam": 10170,
  "damn": 25324,
  "dan": 10312,
  "dar": 20327,
  "das": 27476,
  "dat": 20367,
  "date": 17393,
  "dated": 32164,
  "daughter": 34633,
  "day": 810,
  "days": 45563,
  "dd": 24810,
  "de": 1479,
  "deal": 46394,
  "death": 50000,
  "dec": 42821,
  "ded": 9207,
  "deep": 38422,
  "def": 20595,
  "defense": 49268,
  "defined": 37716,
  "degree": 34368,
  "del": 18105,
  "dem": 10730,
  "den": 1556,
  "denly": 18185,
  "dens": 32468,
  "dep": 19929,
  "depend": 36763,
  "depth": 25478,
  "der": 1068,
  "dern": 35520,
  "ders": 15633,
  "dert": 49799,
  "des": 14792,
  "dess": 13628,
  "dessus": 42401,
  "dest": 23748,
  "det": 17863,
  "determ": 49136,
  "dev": 40343,
  "develop": 35464,
  "df": 45953,
  "di": 4504,
  "did": 38169,
  "die": 11231,
  "dies": 22018,
  "dig": 25259,
  "dim": 13595,
  "dimensional": 18759,
  "din": 17557,
  "ding": 3584,
  "dings": 29432,
  "dio": 41256,
  "dir": 35043,
  "dire": 18267,
  "direct": 44868,
  "dis": 13731,
  "disciplinary": 30520,
  "dish": 40974,
  "display": 35238,
  "displaystyle": 38993,
  "dist": 42649,
  "dit": 17975,
  "dle": 2285,
  "dled": 43130,
  "dles": 21915,
  "dling": 35543,
  "do": 2595,
  "doc": 39966,
  "dock": 48341,
  "does": 48409,
  "dog": 14833,
  "dogs": 42008,
  "doing": 42013,
  "dollar": 40485,
  "dom": 4121,
  "don": 13966,
  "done": 45939,
  "dong": 29368,
  "doo": 48302,
  "door": 10441,
  "doors": 18716,
  "dos": 33749,
  "dot": 43494,
  "down": 5093,
  "dr": 16753,
  "dragon": 41050,
  "dramatic": 15125,
  "draw": 48848,
  "dri": 12746,
  "drive": 45524,
  "driven": 25456,
  "driver": 23609,
  "driving": 47094,
  "dro": 45869,
  "drop": 23332,
  "drum": 38301,
  "ds": 16063,
  "dt": 39488,
  "du": 769,
  "duc": 8117,
  "duct": 5020,
  "duction": 40335,
  "duino": 36262,
  "dul": 49716,
  "dullah": 42324,
  "dy": 3173,
  "dz": 28168,
  "dzie": 13096,
  "dzy": 39858,
  "dÄ±": 26608,
  "dÄ±r": 23091,
  "e": 68,
  "ea": 29791,
  "ead": 2056,
  "ear": 14881,
  "east": 22835,
  "eau": 22290,
  "eb": 34727,
  "ebe": 48593,
  "ec": 3045,
  "ecd": 26565,
  "ech": 5023,
  "eches": 27789,
  "ect": 557,
  "ected": 39963,
  "ection": 10183,
  "ective": 22909,
  "ector": 20814,
  "ed": 292,
  "eda": 8801,
  "edaan": 43534,
  "edar": 34385,
  "eday": 16826,
  "edd": 38786,
  "eddar": 40218,
  "ede": 4858,
  "eded": 37679,
  "edel": 39246,
  "eden": 6876,
  "eder": 10020,
  "edere": 36395,
  "edereen": 41623,
  "edes": 48490,
  "edge": 12203,
  "edi": 10323,
  "edia": 14212,
  "eding": 9794,
  "edly": 13516,
  "edo": 26351,
  "edom": 5086,
  "edor": 34897,
  "edral": 24764,
  "eds": 5147,
  "edsiÄĻ": 38395,
  "edsiÄĻbior": 40494,
  "edu": 22938,
  "educ": 32604,
  "edy": 6038,
  "ee": 1653,
  "eed": 5033,
  "eee": 37954,
  "eeee": 21893,
  "een": 10685,
  "eenth": 46066,
  "ees": 4031,
  "eez": 22544,
  "ef": 5666,
  "eff": 30774,
  "effect": 46168,
  "effective": 45122,
  "eft": 14450,
  "eg": 1146,
  "ega": 6335,
  "egal": 38221,
  "egan": 43118,
  "ege": 2828,
  "egen": 8113,
  "eger": 30744,
  "ego": 6308,
  "egree": 26359,
  "egt": 18500,
  "egÃ³l": 38079,
  "eh": 13301,
  "ei": 17067,
  "eight": 36309,
  "eil": 30684,
  "eing": 14667,
  "ej": 40779,
  "ek": 916,
  "eka": 36361,
  "eken": 41021,
  "eker": 25926,
  "eki": 14753,
  "eking": 38437,
  "ekk": 29010,
  "ekkÃ¼r": 31629,
  "eko": 34241,
  "eks": 24785,
  "ekt": 8192,
  "el": 338,
  "ela": 4053,
  "eland": 15280,
  "elas": 32098,
  "elcome": 29504,
  "eld": 5957,
  "ele": 16884,
  "elect": 14664,
  "electric": 33243,
  "electronic": 33128,
  "eled": 31689,
  "elen": 14818,
  "eler": 6185,
  "eleration": 16096,
  "eleri": 44501,
  "eles": 6972,
  "eless": 4272,
  "elet": 15966,
  "elets": 37220,
  "elf": 1967,
  "eli": 10148,
  "elia": 26091,
  "elier": 46273,
  "elijk": 19592,
  "elim": 23205,
  "elin": 31173,
  "eline": 5440,
  "elines": 9173,
  "eliness": 25307,
  "eling": 11031,
  "ell": 898,
  "ella": 9885,
  "elle": 4434,
  "elled": 41307,
  "ellen": 8581,
  "eller": 14983,
  "elles": 19787,
  "elli": 41129,
  "elling": 11073,
  "ello": 11216,
  "ellow": 21348,
  "ells": 13677,
  "ellschaft": 22055,
  "ellt": 12783,
  "elly": 7442,
  "eln": 9878,
  "elo": 10590,
  "elong": 25490,
  "elp": 28591,
  "els": 1625,
  "else": 44408,
  "elsh": 26248,
  "elsius": 20301,
  "elson": 20471,
  "elt": 2018,
  "elu": 34813,
  "elujah": 26138,
  "elve": 12764,
  "ely": 736,
  "elyn": 49449,
  "em": 443,
  "ema": 5619,
  "emaal": 28368,
  "emaker": 49523,
  "emale": 17272,
  "eman": 15023,
  "emand": 18941,
  "emark": 26721,
  "emary": 37529,
  "emas": 26062,
  "emat": 8615,
  "ematic": 14911,
  "ematically": 40197,
  "ematics": 37541,
  "emb": 33748,
  "ember": 1304,
  "eme": 5729,
  "emed": 15485,
  "emen": 14071,
  "ement": 1712,
  "emente": 16288,
  "ements": 6400,
  "emer": 29660,
  "emet": 24370,
  "emetery": 25558,
  "emi": 13372,
  "emia": 14058,
  "emic": 3438,
  "emics": 38014,
  "emie": 32163,
  "emin": 20008,
  "emit": 31443,
  "emitism": 49208,
  "emment": 20329,
  "emo": 36221,
  "emon": 36228,
  "emor": 26357,
  "emos": 4485,
  "emp": 15970,
  "empl": 5895,
  "emplo": 9066,
  "employ": 12112,
  "empor": 11840,
  "empt": 4543,
  "emption": 26033,
  "ems": 9097,
  "emu": 37552,
  "emy": 3633,
  "emÃ¡s": 16289,
  "en": 268,
  "ena": 4118,
  "enan": 45008,
  "enario": 49120,
  "enary": 42245,
  "enas": 11581,
  "enc": 22660,
  "ence": 655,
  "enced": 14672,
  "encer": 16542,
  "ences": 2667,
  "ench": 40765,
  "enci": 30322,
  "encia": 10974,
  "encial": 26567,
  "encias": 37246,
  "encie": 36220,
  "encies": 6464,
  "encing": 13644,
  "ency": 3020,
  "end": 521,
  "enda": 7639,
  "endar": 10292,
  "endas": 45252,
  "ende": 5445,
  "ended": 3502,
  "enden": 8896,
  "ender": 3216,
  "enders": 16292,
  "endes": 34533,
  "endeu": 36202,
  "endi": 13021,
  "ending": 2029,
  "endo": 3999,
  "endra": 27332,
  "endre": 37850,
  "ends": 2581,
  "endum": 27574,
  "endy": 18642,
  "ene": 1450,
  "eneca": 44852,
  "ened": 5320,
  "enee": 35674,
  "enen": 20317,
  "ener": 7971,
  "energetic": 44970,
  "energy": 49016,
  "enes": 25973,
  "eness": 15264,
  "enez": 15530,
  "enf": 26939,
  "eng": 1501,
  "enga": 31494,
  "engage": 45949,
  "enge": 3032,
  "enger": 10210,
  "engers": 15315,
  "enges": 47077,
  "engine": 25609,
  "engo": 30362,
  "ength": 4206,
  "enh": 39123,
  "eni": 15711,
  "enin": 49939,
  "ening": 4559,
  "enix": 16006,
  "eniz": 40372,
  "enk": 32160,
  "enko": 49737,
  "enment": 26797,
  "enn": 1857,
  "enne": 13295,
  "ennen": 16043,
  "ennes": 42886,
  "ennial": 29705,
  "ennis": 11307,
  "eno": 5808,
  "enos": 20161,
  "ens": 694,
  "ensa": 23364,
  "ensation": 35292,
  "ensch": 26590,
  "enschaft": 20996,
  "ense": 1288,
  "ensed": 16332,
  "enseful": 30398,
  "ensemble": 43004,
  "ensen": 32934,
  "enser": 30041,
  "enses": 9085,
  "ensible": 30633,
  "ensing": 22481,
  "ension": 3378,
  "ensional": 11075,
  "ensions": 8302,
  "ensitive": 34465,
  "ensity": 6859,
  "ensive": 2953,
  "enson": 31232,
  "ensor": 23153,
  "ensored": 50173,
  "ensus": 10983,
  "ent": 317,
  "enta": 8938,
  "ental": 14533,
  "entar": 32067,
  "ente": 1576,
  "ented": 6003,
  "enteen": 29542,
  "enter": 14278,
  "entes": 9240,
  "enth": 17966,
  "enti": 23012,
  "ential": 2549,
  "entially": 3137,
  "entimes": 15760,
  "entin": 47300,
  "enting": 49265,
  "ention": 1251,
  "entle": 5165,
  "entlich": 7698,
  "ently": 2276,
  "ento": 15467,
  "entre": 24570,
  "entric": 32939,
  "entry": 48766,
  "ents": 791,
  "enty": 4179,
  "environ": 46848,
  "eny": 43100,
  "enz": 11368,
  "enza": 23691,
  "enzie": 32203,
  "enÃ§a": 48866,
  "eon": 27015,
  "eous": 14316,
  "ep": 595,
  "epend": 4217,
  "epher": 21676,
  "epherd": 26449,
  "eping": 10921,
  "eps": 10653,
  "ept": 5250,
  "epy": 46983,
  "equ": 12816,
  "er": 260,
  "era": 1663,
  "eral": 2790,
  "erald": 24250,
  "erap": 6289,
  "erapeut": 24046,
  "eras": 6985,
  "eration": 5053,
  "erc": 2869,
  "erca": 36127,
  "erd": 7783,
  "erdem": 35055,
  "erdings": 28519,
  "ere": 323,
  "ereal": 46036,
  "erecht": 48561,
  "ered": 4073,
  "eredith": 28714,
  "erei": 40256,
  "erek": 11746,
  "erel": 39796,
  "erella": 42842,
  "erem": 7333,
  "eremi": 36758,
  "eremiah": 38200,
  "eremony": 12263,
  "eremos": 19065,
  "eremy": 13579,
  "eren": 5170,
  "erer": 29566,
  "eres": 9931,
  "ereum": 24585,
  "ereye": 41333,
  "erez": 28735,
  "erg": 17025,
  "eri": 16310,
  "eria": 41568,
  "erie": 17487,
  "eries": 21659,
  "erin": 31602,
  "ering": 1794,
  "erk": 10608,
  "erkt": 49015,
  "erm": 966,
  "erma": 39994,
  "ermaid": 32124,
  "erman": 11821,
  "erme": 31081,
  "ermo": 46096,
  "ern": 1248,
  "erna": 22250,
  "ername": 28704,
  "erne": 48135,
  "ernen": 25657,
  "erness": 19416,
  "ernt": 46165,
  "ero": 2032,
  "eron": 16308,
  "eros": 16771,
  "erry": 5318,
  "ers": 433,
  "ersch": 22300,
  "erson": 3953,
  "ersonic": 44725,
  "erst": 16398,
  "ert": 911,
  "erta": 22765,
  "ertain": 1408,
  "ertas": 49215,
  "erte": 10634,
  "erten": 39990,
  "ertime": 37923,
  "erting": 27187,
  "erto": 13098,
  "erton": 42112,
  "ertos": 45152,
  "erus": 37287,
  "erv": 1978,
  "ervation": 6864,
  "erve": 3768,
  "erved": 6913,
  "erver": 38241,
  "erves": 9054,
  "ervice": 25006,
  "ervices": 47480,
  "erving": 20186,
  "erweise": 44071,
  "ery": 2109,
  "es": 279,
  "esa": 13708,
  "esar": 18876,
  "esc": 37890,
  "esch": 22320,
  "ese": 1130,
  "esearch": 10177,
  "esehen": 18380,
  "esen": 17403,
  "eses": 23639,
  "esh": 14935,
  "esi": 21181,
  "esian": 42434,
  "esin": 40697,
  "esis": 9374,
  "eso": 41189,
  "esome": 2988,
  "esp": 13361,
  "espace": 45792,
  "esper": 34698,
  "espÃ¨re": 29997,
  "esque": 47457,
  "ess": 442,
  "essa": 8391,
  "esse": 7357,
  "essed": 10830,
  "essee": 20849,
  "essel": 47166,
  "essen": 12431,
  "essential": 48143,
  "esser": 14239,
  "esses": 32393,
  "ession": 4311,
  "essional": 44226,
  "essions": 9069,
  "essment": 38471,
  "esso": 5557,
  "essÃ¤": 44026,
  "est": 377,
  "esta": 7841,
  "estab": 33542,
  "estar": 39791,
  "este": 8887,
  "ested": 21885,
  "esteem": 35301,
  "esten": 38743,
  "estens": 42624,
  "ester": 3011,
  "esterday": 4690,
  "esterol": 21947,
  "esters": 38561,
  "esti": 21597,
  "estial": 33741,
  "estic": 8326,
  "esting": 8714,
  "estion": 31342,
  "estly": 11154,
  "esto": 18465,
  "eston": 44750,
  "estone": 19098,
  "estones": 34853,
  "estra": 32036,
  "estre": 41135,
  "estro": 32389,
  "estruct": 43056,
  "estry": 47433,
  "ests": 4409,
  "esty": 7819,
  "estyle": 9985,
  "estÃ¤": 43439,
  "esus": 26739,
  "esy": 17823,
  "esz": 10430,
  "eszcze": 14143,
  "et": 302,
  "eta": 7664,
  "etaan": 37128,
  "etah": 47947,
  "etas": 35120,
  "etch": 7858,
  "etchup": 26399,
  "ete": 3498,
  "eted": 10993,
  "eten": 19865,
  "eter": 2398,
  "etera": 20269,
  "eterm": 35344,
  "eters": 6202,
  "etes": 37996,
  "eth": 3293,
  "etheless": 21051,
  "ether": 1666,
  "eti": 24566,
  "etic": 3532,
  "etical": 27800,
  "etically": 22652,
  "etics": 15793,
  "eties": 43469,
  "etime": 9764,
  "etin": 38645,
  "eting": 9880,
  "eto": 19515,
  "eton": 26342,
  "etos": 49476,
  "etr": 27965,
  "etric": 17475,
  "etrical": 32283,
  "etry": 9889,
  "ets": 1385,
  "ett": 3093,
  "etta": 16593,
  "ette": 3007,
  "etted": 46508,
  "etten": 30759,
  "etter": 27296,
  "ettes": 16049,
  "etti": 12495,
  "ettle": 28444,
  "etto": 23778,
  "ettre": 40681,
  "etts": 18498,
  "ettu": 42747,
  "etty": 38204,
  "etu": 41236,
  "etus": 40506,
  "ety": 2210,
  "etz": 10074,
  "etzen": 24797,
  "etzt": 3524,
  "etzung": 38584,
  "etÃ©": 41739,
  "eu": 23685,
  "eun": 34566,
  "eur": 13629,
  "eurs": 20395,
  "ev": 13379,
  "even": 27170,
  "ever": 1054,
  "every": 21825,
  "everyone": 36060,
  "ew": 1023,
  "ex": 3121,
  "exc": 27855,
  "exhales": 47782,
  "exist": 18217,
  "existing": 36447,
  "exp": 15952,
  "expensive": 27409,
  "expl": 23040,
  "explosion": 49984,
  "ext": 3828,
  "ey": 2030,
  "eye": 25488,
  "eyed": 37860,
  "ez": 4371,
  "eza": 28604,
  "eze": 10670,
  "f": 69,
  "fa": 11771,
  "face": 2868,
  "faced": 48691,
  "fach": 6749,
  "facing": 44046,
  "fact": 44919,
  "fahr": 20868,
  "fahren": 34394,
  "fal": 36474,
  "fall": 6691,
  "fallen": 24425,
  "falls": 18542,
  "family": 44433,
  "fan": 20361,
  "fang": 19134,
  "far": 21196,
  "fare": 11079,
  "fashion": 34636,
  "fashioned": 37998,
  "fast": 7011,
  "fat": 35293,
  "father": 11541,
  "fe": 2106,
  "fect": 1836,
  "fecture": 47612,
  "fed": 33712,
  "feed": 37036,
  "feeding": 42231,
  "feh": 33865,
  "feit": 37434,
  "feito": 35417,
  "fel": 29874,
  "feld": 25115,
  "felt": 41894,
  "fen": 6570,
  "fend": 18676,
  "fendim": 30462,
  "fendimiz": 46658,
  "fer": 612,
  "fera": 45635,
  "ference": 5158,
  "fern": 28958,
  "fert": 34784,
  "fest": 32348,
  "ff": 602,
  "ffe": 16349,
  "ffect": 11259,
  "ffective": 29122,
  "ffee": 4617,
  "ffen": 15945,
  "ffentlich": 22805,
  "ffer": 38145,
  "ffff": 25388,
  "ffffff": 47175,
  "ffic": 3341,
  "fficial": 37661,
  "fficiency": 49086,
  "fficient": 7816,
  "fficients": 31739,
  "ffiti": 36199,
  "fi": 13325,
  "fia": 22054,
  "fic": 1786,
  "ficiente": 26863,
  "fiction": 32041,
  "field": 7610,
  "fig": 20646,
  "fight": 14919,
  "fik": 31230,
  "fil": 19776,
  "fill": 31072,
  "filled": 35596,
  "film": 37023,
  "fin": 5194,
  "find": 35072,
  "finden": 43270,
  "finder": 38977,
  "finitely": 10925,
  "fir": 42382,
  "fire": 12037,
  "fires": 36197,
  "first": 29581,
  "fish": 11608,
  "fit": 6845,
  "fits": 13979,
  "five": 18621,
  "fl": 3423,
  "flan": 39037,
  "flanzen": 50063,
  "fle": 38921,
  "flies": 24471,
  "flight": 43636,
  "flix": 12336,
  "flo": 43645,
  "flow": 10565,
  "flower": 30794,
  "flowing": 43955,
  "flows": 33229,
  "flu": 49253,
  "fly": 14061,
  "fo": 16931,
  "focused": 44062,
  "fol": 7082,
  "fold": 18353,
  "folg": 23910,
  "folk": 39705,
  "fon": 14338,
  "font": 12491,
  "food": 35549,
  "foot": 13498,
  "for": 2994,
  "force": 5156,
  "forcement": 9382,
  "ford": 7404,
  "forder": 30943,
  "fore": 845,
  "foreign": 49003,
  "forest": 36629,
  "form": 837,
  "formation": 8663,
  "forme": 44562,
  "formed": 22892,
  "forming": 48610,
  "fort": 2728,
  "fortable": 10124,
  "forth": 44779,
  "forward": 13305,
  "found": 17493,
  "founded": 49547,
  "founder": 33348,
  "four": 23251,
  "fox": 38416,
  "fps": 50084,
  "fr": 5779,
  "frage": 40449,
  "frame": 17265,
  "frames": 43277,
  "fre": 19325,
  "fred": 47613,
  "free": 10792,
  "frei": 42072,
  "fried": 22773,
  "friend": 5540,
  "friendly": 22864,
  "friends": 29027,
  "frist": 48754,
  "from": 20579,
  "front": 11496,
  "fruit": 33564,
  "fry": 35299,
  "fs": 16883,
  "ft": 844,
  "fta": 49046,
  "fte": 16268,
  "ften": 14513,
  "fter": 828,
  "ftig": 34765,
  "fting": 20930,
  "fu": 14127,
  "ful": 906,
  "full": 32818,
  "fully": 2277,
  "fulness": 26872,
  "fun": 15930,
  "function": 22845,
  "fund": 21874,
  "funded": 43589,
  "funding": 45033,
  "fur": 48057,
  "fy": 22522,
  "fÃ¤h": 44616,
  "fÃ¶": 49323,
  "fÃ¶r": 15610,
  "fÃ¼hr": 29189,
  "fÃ¼r": 12474,
  "g": 70,
  "ga": 3680,
  "gado": 30135,
  "gae": 45534,
  "gage": 15637,
  "gal": 9800,
  "gam": 33815,
  "game": 15038,
  "gan": 1275,
  "gang": 19619,
  "gangen": 47152,
  "gano": 35255,
  "gar": 2976,
  "gard": 36260,
  "gart": 49330,
  "gary": 36214,
  "gas": 10549,
  "gasp": 42267,
  "gasping": 47230,
  "gasps": 22901,
  "gate": 22514,
  "ge": 432,
  "geb": 10848,
  "gebaut": 42858,
  "geben": 16702,
  "gebra": 19983,
  "ged": 3004,
  "gee": 31577,
  "gef": 13529,
  "geh": 27057,
  "gehen": 24985,
  "geht": 46227,
  "gel": 10345,
  "geld": 49591,
  "gem": 26322,
  "geme": 31964,
  "gement": 48122,
  "gen": 1766,
  "gence": 15260,
  "gency": 5595,
  "gend": 9395,
  "gende": 27429,
  "gender": 22174,
  "gener": 21848,
  "generation": 30372,
  "genes": 47986,
  "genommen": 29270,
  "gens": 23212,
  "gent": 6930,
  "gentle": 17458,
  "geois": 49670,
  "geon": 11641,
  "geons": 30636,
  "geord": 36161,
  "ger": 1321,
  "gere": 34899,
  "geries": 32217,
  "gers": 9458,
  "gery": 7337,
  "ges": 2880,
  "gesamt": 34818,
  "gesch": 23378,
  "gesetz": 33506,
  "gesetzt": 42283,
  "gest": 2629,
  "gestellt": 26293,
  "get": 847,
  "getic": 19177,
  "gets": 16284,
  "gettable": 43312,
  "gew": 21306,
  "gg": 1615,
  "gga": 33462,
  "ggak": 24116,
  "gged": 12244,
  "gger": 39381,
  "ggi": 22771,
  "gging": 10877,
  "gh": 9030,
  "ghan": 10897,
  "gi": 7834,
  "gia": 40550,
  "gic": 11577,
  "gie": 9997,
  "gies": 25480,
  "giggles": 32975,
  "giggling": 45856,
  "gil": 29965,
  "gili": 34074,
  "gin": 1494,
  "gines": 12659,
  "ging": 3249,
  "gins": 23320,
  "gio": 17862,
  "girl": 21322,
  "give": 25850,
  "giving": 15441,
  "gl": 7191,
  "glass": 28851,
  "gle": 22631,
  "gli": 41443,
  "glich": 8856,
  "glio": 47002,
  "gment": 10433,
  "gments": 37148,
  "gn": 4568,
  "go": 1571,
  "god": 21787,
  "going": 8102,
  "gom": 30851,
  "gomery": 34036,
  "gon": 10660,
  "gone": 39743,
  "good": 21753,
  "gor": 26465,
  "gos": 18674,
  "got": 13178,
  "gov": 16089,
  "govern": 35329,
  "gow": 34968,
  "gr": 861,
  "gra": 20735,
  "grad": 7165,
  "grade": 8692,
  "grades": 22626,
  "graduate": 47187,
  "gram": 1342,
  "gran": 42381,
  "grand": 32902,
  "graph": 34091,
  "grass": 38663,
  "grav": 36418,
  "gre": 33248,
  "great": 40753,
  "green": 27399,
  "greg": 11027,
  "gren": 45968,
  "gres": 45189,
  "gress": 3091,
  "gression": 13338,
  "grid": 35320,
  "griff": 32783,
  "gro": 17427,
  "groaning": 46723,
  "groans": 37580,
  "ground": 2921,
  "group": 17377,
  "grow": 26685,
  "grown": 38413,
  "growth": 49747,
  "grund": 23701,
  "grunting": 37371,
  "grunts": 37727,
  "grupp": 37768,
  "grÃ©": 36341,
  "gs": 21559,
  "gt": 10463,
  "gu": 2794,
  "gua": 20845,
  "guard": 27547,
  "gue": 11929,
  "guitar": 38442,
  "gun": 7414,
  "gunt": 14857,
  "gunta": 17806,
  "guru": 32266,
  "gus": 21956,
  "guy": 39344,
  "gy": 1480,
  "gypt": 9176,
  "h": 71,
  "ha": 1641,
  "hab": 7821,
  "haba": 42016,
  "habitude": 47470,
  "habt": 35641,
  "had": 26326,
  "hadow": 31933,
  "haft": 25127,
  "hai": 18230,
  "hail": 48909,
  "hair": 46135,
  "hait": 49966,
  "hak": 37253,
  "hake": 34593,
  "hal": 4947,
  "halb": 13209,
  "hale": 8996,
  "hales": 37507,
  "half": 25461,
  "hall": 43864,
  "halt": 20731,
  "halten": 15022,
  "ham": 4822,
  "hammer": 39985,
  "han": 3451,
  "hana": 39907,
  "hand": 5543,
  "handed": 25407,
  "hando": 28190,
  "hang": 23850,
  "hanol": 35735,
  "hao": 19880,
  "hape": 42406,
  "happy": 17888,
  "haps": 3591,
  "har": 5854,
  "hard": 21491,
  "hare": 31932,
  "harma": 29171,
  "hart": 42535,
  "has": 12438,
  "hat": 15178,
  "haul": 39423,
  "haupt": 19276,
  "haus": 23321,
  "have": 24284,
  "hay": 47464,
  "hd": 20272,
  "he": 675,
  "hea": 27799,
  "head": 1934,
  "headed": 28409,
  "heads": 29481,
  "health": 19225,
  "healthy": 26767,
  "heard": 42915,
  "heart": 12864,
  "hearted": 25471,
  "heavy": 37157,
  "hed": 27096,
  "hee": 14600,
  "heen": 42276,
  "heet": 38164,
  "hehe": 23500,
  "hei": 42674,
  "heid": 26013,
  "heim": 18673,
  "heimer": 23542,
  "hein": 44448,
  "heiro": 20267,
  "heit": 8480,
  "heiten": 38754,
  "heits": 24260,
  "hel": 18063,
  "held": 23504,
  "hell": 21288,
  "helm": 48319,
  "help": 37451,
  "hem": 28005,
  "hen": 2932,
  "her": 511,
  "here": 6703,
  "heres": 19464,
  "heric": 23920,
  "herical": 34340,
  "hern": 7894,
  "hero": 16218,
  "hertz": 35655,
  "hes": 8076,
  "hesia": 42464,
  "hesion": 38571,
  "hesive": 19379,
  "het": 9092,
  "hetic": 17151,
  "hetto": 40556,
  "heure": 23084,
  "heus": 42209,
  "hew": 17418,
  "hews": 46415,
  "hey": 17230,
  "hguru": 37014,
  "hh": 3454,
  "hhh": 12614,
  "hhhh": 15242,
  "hi": 4954,
  "hib": 5455,
  "hic": 32582,
  "high": 21454,
  "hil": 42829,
  "hill": 17000,
  "him": 18251,
  "hin": 10876,
  "hind": 37573,
  "hing": 571,
  "hington": 6050,
  "hini": 45600,
  "hip": 1210,
  "hips": 7640,
  "hir": 24118,
  "hire": 25966,
  "his": 18300,
  "hist": 33236,
  "histoire": 29093,
  "hit": 37068,
  "hl": 22950,
  "hm": 8587,
  "hma": 22061,
  "hmen": 9547,
  "hmm": 10250,
  "hn": 12071,
  "hnlich": 35646,
  "ho": 1289,
  "hod": 2926,
  "hodou": 43887,
  "hoe": 33810,
  "hof": 35128,
  "hog": 27084,
  "hol": 5449,
  "hold": 4104,
  "holder": 20480,
  "holders": 12916,
  "hole": 14094,
  "holes": 37894,
  "holm": 32479,
  "home": 25336,
  "homme": 38073,
  "hon": 34914,
  "hone": 6487,
  "hong": 46507,
  "hoo": 19069,
  "hood": 3809,
  "hoon": 30429,
  "hoot": 24467,
  "hooting": 47011,
  "hop": 9050,
  "hope": 47485,
  "hops": 18415,
  "hor": 2335,
  "hora": 7013,
  "hores": 39356,
  "horn": 31990,
  "horse": 45079,
  "hos": 17631,
  "host": 6037,
  "hot": 12194,
  "hots": 27495,
  "hou": 12181,
  "houette": 28191,
  "hour": 18048,
  "house": 6410,
  "houses": 29578,
  "hov": 28057,
  "hovah": 48755,
  "hoven": 33654,
  "how": 4286,
  "hower": 48780,
  "hr": 1703,
  "hrlich": 34188,
  "hst": 38857,
  "ht": 357,
  "hta": 39903,
  "htaking": 46275,
  "hte": 23904,
  "hthal": 49123,
  "hu": 12086,
  "hua": 30107,
  "huh": 18710,
  "hui": 10556,
  "hum": 14645,
  "huma": 42043,
  "human": 18796,
  "hun": 42898,
  "hur": 31655,
  "hus": 10846,
  "hwa": 41235,
  "hy": 3495,
  "hyd": 21591,
  "hythm": 34494,
  "hyuk": 42661,
  "hyun": 21806,
  "hyung": 44326,
  "hÃ£": 36320,
  "hÃ¤lt": 28068,
  "hÃ¤ng": 34591,
  "hÃ©s": 34913,
  "hÃ©sitez": 45587,
  "hÃµes": 31819,
  "hÃ¶": 33195,
  "i": 72,
  "ia": 654,
  "iable": 9364,
  "iac": 13921,
  "iad": 38069,
  "iada": 39018,
  "iage": 47876,
  "iah": 13984,
  "iajÄħ": 48125,
  "ial": 831,
  "iale": 25051,
  "ially": 2270,
  "ials": 12356,
  "iam": 2918,
  "iamente": 16855,
  "iami": 15568,
  "iamo": 7415,
  "ian": 952,
  "iana": 8497,
  "iance": 6276,
  "iances": 21518,
  "iander": 29317,
  "iane": 21133,
  "iani": 21309,
  "iano": 6254,
  "ians": 2567,
  "iant": 5798,
  "iantes": 46269,
  "iantly": 42580,
  "iao": 7648,
  "iar": 9448,
  "iary": 29104,
  "ias": 4609,
  "iasm": 21940,
  "iat": 7676,
  "iate": 13024,
  "iation": 6642,
  "iatric": 17252,
  "iau": 45274,
  "iaÅĤ": 8908,
  "iaÅĤa": 25605,
  "iaÅĤem": 36368,
  "ib": 897,
  "iba": 17036,
  "ibal": 34764,
  "iban": 23586,
  "ibe": 47622,
  "ibel": 44685,
  "iben": 13771,
  "iber": 5331,
  "iberal": 46364,
  "ibi": 25515,
  "ibil": 11607,
  "ibile": 30898,
  "ibilidad": 33989,
  "ibilities": 8261,
  "ibility": 2841,
  "ibl": 11476,
  "ible": 964,
  "ibles": 14428,
  "iblical": 21101,
  "iblings": 20002,
  "ibly": 3545,
  "ibo": 27776,
  "ibr": 6414,
  "ibt": 13651,
  "ic": 299,
  "ica": 2262,
  "icable": 43023,
  "icaid": 23840,
  "ical": 804,
  "ically": 984,
  "icamente": 23653,
  "ican": 8914,
  "icana": 44864,
  "icano": 38028,
  "icans": 34332,
  "icar": 7953,
  "icas": 9150,
  "icate": 8700,
  "icated": 3587,
  "icating": 30541,
  "ication": 8758,
  "ications": 24847,
  "icaÃ§Ã£o": 37823,
  "ice": 573,
  "iced": 4233,
  "iceless": 41817,
  "icem": 46343,
  "iceps": 35552,
  "icer": 31250,
  "ices": 1473,
  "ich": 480,
  "icha": 48710,
  "iche": 9304,
  "ichen": 18613,
  "icher": 14934,
  "icherung": 48659,
  "ichi": 18543,
  "icho": 33082,
  "icht": 1405,
  "ichte": 18972,
  "ichten": 24681,
  "ichtet": 40387,
  "ichtig": 7334,
  "ichtlich": 41971,
  "ichts": 44508,
  "ici": 8787,
  "icia": 15341,
  "icial": 14730,
  "ician": 9027,
  "icians": 8455,
  "iciary": 38801,
  "icias": 48042,
  "icide": 9584,
  "icides": 43393,
  "icie": 28434,
  "iciency": 42081,
  "icient": 24549,
  "icing": 5776,
  "icio": 18322,
  "icion": 18899,
  "icional": 33010,
  "iciones": 29719,
  "icios": 26817,
  "icious": 3784,
  "icip": 6537,
  "icism": 26356,
  "icit": 8876,
  "icity": 44198,
  "iciÃ³n": 15534,
  "ick": 618,
  "icked": 12598,
  "icken": 3830,
  "icker": 33804,
  "ickers": 36928,
  "icket": 20551,
  "ickets": 38748,
  "icki": 41356,
  "icking": 10401,
  "icks": 7663,
  "ickt": 40522,
  "icky": 20539,
  "icle": 3520,
  "icles": 5350,
  "ico": 2789,
  "icon": 11911,
  "icop": 14149,
  "icorn": 23115,
  "icos": 9940,
  "ics": 1167,
  "ict": 985,
  "icted": 11254,
  "icting": 21490,
  "iction": 4105,
  "ictional": 23611,
  "ictions": 15607,
  "icular": 14646,
  "icularly": 29695,
  "icus": 36496,
  "icut": 28097,
  "icy": 2632,
  "icz": 17946,
  "id": 327,
  "ida": 2887,
  "idable": 38089,
  "idad": 4580,
  "idade": 6014,
  "idades": 10284,
  "idal": 22151,
  "idamente": 49663,
  "idan": 31675,
  "idar": 48133,
  "idas": 11382,
  "iday": 4708,
  "idays": 13177,
  "idaÄĩ": 46898,
  "idd": 14273,
  "idden": 6171,
  "ide": 482,
  "ided": 2112,
  "idel": 16189,
  "idelity": 33343,
  "iden": 4380,
  "idence": 2778,
  "idences": 41298,
  "idency": 23343,
  "ident": 1078,
  "idental": 47023,
  "identally": 36578,
  "idente": 40114,
  "identified": 40613,
  "idents": 6026,
  "ideo": 24589,
  "ider": 1438,
  "iderman": 47811,
  "iders": 6936,
  "ides": 1875,
  "idet": 39741,
  "idez": 45170,
  "idge": 3815,
  "idi": 12716,
  "idian": 34681,
  "iding": 2819,
  "idir": 33031,
  "idis": 40920,
  "idity": 17711,
  "ido": 2925,
  "idor": 29718,
  "idores": 38835,
  "idos": 7895,
  "ids": 3742,
  "idy": 38836,
  "idÃ¤n": 33823,
  "idÃ©": 35146,
  "idÃ©e": 34281,
  "ie": 414,
  "ieben": 38243,
  "iec": 35733,
  "iece": 46566,
  "ied": 1091,
  "ieder": 5653,
  "iedo": 36035,
  "iedy": 16446,
  "iedz": 15338,
  "iedzieÄĩ": 22078,
  "ief": 2521,
  "ieg": 20408,
  "iegen": 33633,
  "iego": 12200,
  "ieht": 39850,
  "iej": 7764,
  "iek": 19487,
  "iel": 1187,
  "ield": 1789,
  "iele": 15949,
  "ielen": 12844,
  "ieli": 23099,
  "iell": 32562,
  "ielle": 16033,
  "iels": 44189,
  "ielt": 18940,
  "iem": 4907,
  "iemand": 39362,
  "iembre": 49772,
  "ieme": 44940,
  "iempo": 11571,
  "ien": 1053,
  "ience": 1182,
  "ienced": 47592,
  "iences": 14004,
  "iencia": 30592,
  "iencies": 31294,
  "iency": 7848,
  "iend": 1174,
  "ienda": 30498,
  "iende": 45816,
  "iendo": 7304,
  "iene": 10174,
  "ienen": 22461,
  "ieni": 35462,
  "ienia": 18811,
  "ienie": 27385,
  "ienna": 26143,
  "ienne": 21262,
  "iennent": 28977,
  "iens": 24594,
  "ienst": 27366,
  "ient": 1196,
  "iente": 8413,
  "ientes": 20135,
  "iento": 7814,
  "ientos": 20370,
  "ientras": 22148,
  "ients": 2448,
  "ientÃ´t": 33844,
  "ienza": 42331,
  "ier": 811,
  "iera": 10609,
  "ieran": 38516,
  "iere": 14412,
  "ieren": 5695,
  "ieri": 45980,
  "iern": 49584,
  "ierno": 19689,
  "iero": 12030,
  "ieron": 14440,
  "ierra": 17452,
  "iers": 4890,
  "iert": 4859,
  "ierte": 23123,
  "ierten": 29632,
  "ierto": 20747,
  "ierung": 11651,
  "ierungs": 40908,
  "ierz": 34602,
  "ies": 530,
  "iese": 39158,
  "iesen": 30383,
  "ieso": 32272,
  "iest": 6495,
  "iesta": 38804,
  "iesz": 15347,
  "iet": 1684,
  "iete": 40462,
  "ieten": 25868,
  "ietet": 45531,
  "ieth": 38449,
  "ieties": 19084,
  "ietnam": 10507,
  "iety": 4014,
  "ieu": 19347,
  "ieur": 20679,
  "ieurs": 17743,
  "ieux": 35371,
  "iev": 9037,
  "ieval": 21129,
  "ieve": 11108,
  "ieved": 46515,
  "ievers": 42394,
  "ieves": 28648,
  "ieving": 30244,
  "ievous": 42111,
  "iew": 1093,
  "iewaÅ¼": 27806,
  "iez": 18812,
  "ieza": 35597,
  "ieÃŁ": 39245,
  "ieÃŁen": 40687,
  "if": 351,
  "ifa": 29634,
  "ifall": 13730,
  "ife": 863,
  "ifen": 25076,
  "ifer": 9361,
  "iferation": 44987,
  "iff": 3661,
  "iffany": 20195,
  "iffe": 31387,
  "iffer": 12612,
  "ifferent": 15790,
  "iffs": 17643,
  "ifi": 17638,
  "ifiable": 30876,
  "ific": 1089,
  "ifica": 43377,
  "ificaciÃ³n": 40802,
  "ifically": 4278,
  "ificant": 35277,
  "ificar": 25625,
  "ification": 3774,
  "ifications": 7833,
  "ifice": 10505,
  "ificial": 10371,
  "ifie": 42726,
  "ified": 2587,
  "ifier": 9902,
  "ifiers": 23463,
  "ifies": 11221,
  "ifik": 45475,
  "ifique": 28134,
  "ifiques": 48463,
  "iform": 8629,
  "iforn": 5203,
  "ifs": 18290,
  "ift": 2008,
  "ifter": 30846,
  "ifting": 10106,
  "ifts": 8065,
  "ifty": 37177,
  "iful": 2069,
  "ifully": 15386,
  "ify": 2505,
  "ifying": 5489,
  "ig": 328,
  "iga": 9900,
  "igail": 44582,
  "igan": 9552,
  "igans": 49088,
  "igare": 46956,
  "igation": 21494,
  "igator": 28895,
  "ige": 3969,
  "igen": 3213,
  "igence": 17644,
  "igenous": 11214,
  "igent": 25002,
  "iger": 4810,
  "igers": 24756,
  "iges": 20609,
  "igg": 6249,
  "igger": 6812,
  "iggers": 20942,
  "iggle": 19694,
  "iggles": 19469,
  "iggling": 24542,
  "iggly": 46737,
  "iggs": 32555,
  "igh": 910,
  "igher": 2867,
  "ighing": 24412,
  "ighs": 10311,
  "ight": 397,
  "ights": 5761,
  "ighty": 12452,
  "igi": 19789,
  "igible": 11292,
  "igious": 21883,
  "igkeit": 16626,
  "igkeiten": 37545,
  "igm": 20181,
  "igma": 16150,
  "igmat": 46496,
  "ign": 788,
  "ignant": 36818,
  "igne": 26341,
  "igned": 16690,
  "igner": 36596,
  "igning": 9676,
  "ignment": 41134,
  "ignon": 41846,
  "igns": 42636,
  "ignty": 26919,
  "igo": 7483,
  "igon": 47578,
  "igor": 47131,
  "igos": 13348,
  "igrade": 41278,
  "igram": 33737,
  "igraph": 42034,
  "igration": 36045,
  "igs": 17156,
  "igt": 5828,
  "igten": 41498,
  "igu": 16397,
  "igue": 16831,
  "igung": 21034,
  "iguous": 30525,
  "ih": 4247,
  "ihad": 43837,
  "ihat": 41650,
  "ihen": 29842,
  "ihi": 48747,
  "ihin": 36902,
  "ihn": 37493,
  "ihood": 34262,
  "ihu": 44344,
  "ii": 5597,
  "iiii": 42526,
  "iin": 31463,
  "ij": 1718,
  "ija": 20642,
  "ijah": 32630,
  "ijd": 14675,
  "ije": 37697,
  "iji": 26539,
  "ijk": 6940,
  "ijke": 33611,
  "ijn": 6041,
  "ijo": 24510,
  "ijuana": 21992,
  "ik": 1035,
  "ika": 5439,
  "ikal": 41216,
  "ikan": 16048,
  "ikat": 36300,
  "ike": 1123,
  "iked": 44070,
  "ikel": 41486,
  "iken": 19640,
  "iker": 17314,
  "ikes": 8916,
  "ikh": 22400,
  "iki": 9850,
  "iking": 13085,
  "ikit": 48183,
  "ikk": 26301,
  "ikka": 31688,
  "ikke": 38735,
  "ikle": 40177,
  "iko": 10770,
  "iks": 23292,
  "iksi": 39664,
  "ikt": 9874,
  "ikte": 34165,
  "iku": 24320,
  "ikum": 35518,
  "ikut": 49971,
  "il": 388,
  "ila": 7371,
  "ilage": 48066,
  "ilah": 45014,
  "ilan": 21752,
  "ilant": 25824,
  "ilantro": 41160,
  "ilar": 2202,
  "ilate": 48104,
  "ilated": 45678,
  "ilateral": 37751,
  "ilation": 16067,
  "ild": 793,
  "ilda": 34121,
  "ilde": 15956,
  "ile": 794,
  "iled": 7292,
  "ilee": 33914,
  "ileen": 42914,
  "ilen": 17471,
  "iler": 5441,
  "ileri": 45091,
  "iles": 4680,
  "iley": 12062,
  "ili": 2312,
  "ilia": 24169,
  "ilian": 48666,
  "ilians": 21738,
  "iliar": 4600,
  "iliary": 38550,
  "iliation": 22002,
  "ilib": 12722,
  "ilight": 27797,
  "ilik": 41470,
  "ilim": 26026,
  "iling": 4883,
  "ilingual": 38219,
  "ilipp": 12833,
  "ilit": 34050,
  "ilities": 3064,
  "ility": 1140,
  "iliyor": 34845,
  "iliz": 47043,
  "iliÅĽmy": 43912,
  "ill": 373,
  "illa": 5291,
  "illah": 32703,
  "illance": 17223,
  "illar": 30635,
  "illary": 46367,
  "illas": 20243,
  "ille": 3409,
  "illed": 6261,
  "iller": 10497,
  "illery": 25857,
  "illes": 14835,
  "illeurs": 14810,
  "illi": 31922,
  "illing": 7345,
  "illion": 11836,
  "illions": 46279,
  "illo": 15831,
  "illon": 30961,
  "illos": 47476,
  "ills": 2565,
  "illy": 6917,
  "illÃ¤": 21823,
  "ilo": 10720,
  "ilon": 15754,
  "ilos": 6136,
  "ilot": 31516,
  "ils": 4174,
  "ilst": 15177,
  "ilt": 2352,
  "ilton": 15200,
  "ilty": 11544,
  "ily": 953,
  "ilyn": 41078,
  "ilÃł": 10039,
  "im": 332,
  "ima": 4775,
  "imaan": 40338,
  "imag": 25228,
  "image": 26624,
  "imagin": 44976,
  "imal": 10650,
  "iman": 25504,
  "imana": 36497,
  "imar": 49396,
  "imas": 17957,
  "imasu": 47029,
  "imat": 33862,
  "imate": 2905,
  "imated": 33008,
  "imately": 5401,
  "imb": 17306,
  "imbap": 46304,
  "imdi": 10308,
  "ime": 1312,
  "imen": 19676,
  "imens": 37294,
  "iment": 2328,
  "imento": 10030,
  "imentos": 34626,
  "iments": 8321,
  "imer": 9713,
  "imerk": 45063,
  "imes": 1532,
  "imet": 26123,
  "imeter": 9685,
  "imeters": 14349,
  "imi": 10121,
  "imiento": 14007,
  "imientos": 34841,
  "imin": 4395,
  "imir": 26935,
  "imiz": 12526,
  "imize": 43890,
  "imizi": 40813,
  "imm": 6753,
  "imme": 20380,
  "immen": 32076,
  "immer": 14477,
  "immers": 43107,
  "imming": 40471,
  "immt": 15314,
  "immune": 49031,
  "immung": 38412,
  "imo": 6934,
  "imon": 25098,
  "imore": 21917,
  "imos": 8372,
  "imoto": 42277,
  "imp": 8814,
  "import": 20737,
  "important": 41654,
  "importe": 38320,
  "impression": 36107,
  "ims": 18857,
  "imsical": 49945,
  "imy": 13189,
  "in": 259,
  "ina": 1426,
  "inaire": 38431,
  "inal": 2071,
  "inally": 19801,
  "inals": 33961,
  "inander": 20553,
  "inar": 6470,
  "inars": 24627,
  "inary": 4066,
  "inas": 17094,
  "inate": 13923,
  "inated": 5410,
  "inating": 8205,
  "ination": 2486,
  "inations": 10325,
  "inator": 31927,
  "inaudible": 6436,
  "inaÃ§Ã£o": 40788,
  "inc": 4647,
  "incarn": 41801,
  "ince": 1236,
  "inch": 12415,
  "inci": 21961,
  "including": 50010,
  "incoln": 15212,
  "income": 30673,
  "inct": 5460,
  "inction": 12987,
  "inctions": 49798,
  "ind": 471,
  "inda": 6837,
  "inde": 8274,
  "indeer": 44749,
  "inden": 10291,
  "inder": 5669,
  "indest": 33155,
  "indet": 49419,
  "indi": 10255,
  "inding": 9245,
  "indistinct": 16041,
  "indo": 10306,
  "indre": 28786,
  "indruck": 41824,
  "indung": 41442,
  "indust": 29850,
  "industrie": 50046,
  "ine": 533,
  "inea": 31940,
  "ined": 2001,
  "inee": 22036,
  "inees": 27558,
  "inek": 48421,
  "inel": 40952,
  "inely": 33592,
  "inement": 30229,
  "inen": 5636,
  "inent": 11058,
  "inental": 38653,
  "iner": 4564,
  "inery": 23194,
  "ines": 1652,
  "inese": 48629,
  "iness": 1324,
  "inet": 21370,
  "inf": 19920,
  "infect": 26260,
  "infl": 27850,
  "inflamm": 45684,
  "inform": 37811,
  "information": 20941,
  "ing": 278,
  "inga": 41705,
  "inge": 8735,
  "ingen": 12343,
  "inger": 6911,
  "ingers": 40180,
  "inging": 8716,
  "ingle": 26209,
  "ingly": 12163,
  "ingo": 18459,
  "ings": 1109,
  "ingt": 23190,
  "ington": 20251,
  "ingu": 7050,
  "inguÃ©m": 25985,
  "inh": 10085,
  "inha": 6727,
  "inhas": 28881,
  "inho": 7775,
  "inhos": 29140,
  "ini": 3812,
  "inin": 15916,
  "ining": 1760,
  "inis": 25555,
  "inished": 35923,
  "inity": 11540,
  "iniz": 9328,
  "inizi": 46222,
  "ink": 475,
  "inka": 38989,
  "inken": 35061,
  "inker": 40467,
  "inki": 41917,
  "inking": 12408,
  "inkle": 14095,
  "inkles": 23870,
  "inkling": 45258,
  "inks": 16431,
  "inku": 48669,
  "inky": 22998,
  "inn": 7729,
  "inned": 45508,
  "innen": 11399,
  "inner": 19166,
  "ino": 2982,
  "inois": 15936,
  "inos": 15220,
  "inqu": 37384,
  "ins": 1292,
  "inse": 22134,
  "insi": 22870,
  "inski": 38984,
  "insky": 44153,
  "inson": 14321,
  "insp": 31637,
  "inst": 13911,
  "install": 40166,
  "instant": 48142,
  "instr": 50024,
  "insula": 27186,
  "int": 686,
  "inta": 16071,
  "intage": 20582,
  "inte": 12401,
  "integr": 31131,
  "intell": 20761,
  "intelligible": 27356,
  "intend": 24226,
  "intendent": 27563,
  "intendo": 11177,
  "intense": 33406,
  "inter": 5106,
  "interest": 27685,
  "interpret": 41935,
  "inters": 35388,
  "into": 17246,
  "inton": 12442,
  "introdu": 38132,
  "ints": 8654,
  "intÃ©": 36934,
  "intÃ©rieur": 39166,
  "inum": 26731,
  "invest": 31498,
  "iny": 3519,
  "inya": 28507,
  "inyl": 22946,
  "inÃ¤": 32097,
  "io": 1004,
  "iod": 2695,
  "iology": 46457,
  "ion": 313,
  "iona": 21758,
  "ional": 1966,
  "ionar": 33639,
  "ione": 5328,
  "ioned": 37579,
  "ionen": 17068,
  "iones": 5411,
  "ioni": 15273,
  "iono": 49020,
  "ions": 626,
  "iony": 46184,
  "ior": 1973,
  "iors": 9337,
  "ios": 2717,
  "iosa": 37050,
  "iosis": 48783,
  "iosity": 40729,
  "ioso": 23540,
  "iot": 6471,
  "ious": 851,
  "iously": 8994,
  "iov": 20675,
  "iovascular": 30313,
  "iox": 13973,
  "ioxid": 30565,
  "ioÃ¨": 35983,
  "ip": 647,
  "ipe": 6527,
  "ipedia": 26633,
  "iper": 15402,
  "ipes": 38689,
  "iph": 24595,
  "ipher": 21240,
  "iping": 46440,
  "ipl": 34442,
  "ipp": 2488,
  "ipped": 5529,
  "ipper": 15124,
  "ippers": 31323,
  "ippi": 18626,
  "ipping": 6297,
  "ipple": 23476,
  "ipples": 37674,
  "ippy": 48363,
  "ips": 2600,
  "ipse": 48041,
  "ipt": 22439,
  "ipts": 48908,
  "iqu": 3221,
  "ique": 1925,
  "iquement": 27703,
  "iquer": 23909,
  "iques": 4911,
  "iquÃ©": 27968,
  "ir": 347,
  "ira": 4271,
  "irable": 21493,
  "iral": 35083,
  "iram": 40359,
  "iran": 40111,
  "iras": 23342,
  "iration": 7611,
  "ird": 1271,
  "irdi": 36455,
  "ire": 621,
  "irect": 11890,
  "ired": 1824,
  "irement": 28575,
  "iren": 18833,
  "irens": 44511,
  "ires": 3145,
  "irez": 50231,
  "iri": 12988,
  "irie": 32924,
  "iries": 38619,
  "irim": 37465,
  "iring": 5057,
  "irit": 2911,
  "iritual": 47923,
  "irk": 18610,
  "irl": 1648,
  "irler": 38608,
  "irm": 3692,
  "irmi": 49110,
  "iro": 5182,
  "iron": 2088,
  "iros": 21633,
  "irrel": 24704,
  "irring": 30845,
  "irs": 12983,
  "irse": 36097,
  "irsin": 43384,
  "irsiniz": 34054,
  "irst": 653,
  "irsty": 15941,
  "irt": 2498,
  "irteen": 27114,
  "irting": 36575,
  "irts": 9899,
  "irtschaft": 32896,
  "irty": 9340,
  "irus": 9619,
  "iry": 12781,
  "is": 271,
  "isa": 3837,
  "isan": 14804,
  "isance": 46852,
  "isas": 13198,
  "isation": 7623,
  "isations": 47791,
  "isc": 5606,
  "iscal": 14616,
  "isce": 49596,
  "iscern": 42074,
  "iscernible": 42758,
  "isch": 5494,
  "ische": 7864,
  "ischen": 6282,
  "ischer": 19674,
  "isches": 35889,
  "iscilla": 49413,
  "isco": 8610,
  "isconsin": 17659,
  "iscover": 40080,
  "ise": 908,
  "ised": 2640,
  "iseen": 44234,
  "isel": 39711,
  "isen": 11106,
  "iser": 6694,
  "ises": 3598,
  "isesti": 35216,
  "iset": 42907,
  "isexual": 38505,
  "isf": 4937,
  "ish": 742,
  "isha": 16546,
  "ished": 4729,
  "isher": 9807,
  "ishes": 16423,
  "ishi": 27537,
  "ishing": 3807,
  "ishment": 30273,
  "ishna": 20348,
  "ishop": 18091,
  "ishops": 48056,
  "isi": 8021,
  "isia": 15877,
  "isiaj": 22356,
  "isiej": 50117,
  "isiert": 42266,
  "isierung": 32531,
  "isin": 33787,
  "isine": 20668,
  "ising": 3436,
  "isini": 47321,
  "ision": 1991,
  "isions": 4252,
  "isis": 28436,
  "isiÃ¨me": 44000,
  "isiÃ³n": 36515,
  "isk": 7797,
  "iska": 21945,
  "isko": 43442,
  "iskt": 23606,
  "isl": 5788,
  "ism": 1434,
  "isma": 14795,
  "ismatic": 34088,
  "isme": 16415,
  "ismo": 6882,
  "isms": 13539,
  "ismus": 25327,
  "iso": 19227,
  "isode": 14172,
  "isoft": 47929,
  "isol": 29273,
  "ison": 2770,
  "isons": 23886,
  "isp": 7631,
  "ispering": 35237,
  "ispers": 31018,
  "isphere": 31048,
  "ispiel": 11935,
  "iss": 891,
  "issa": 10138,
  "issance": 14431,
  "issant": 29492,
  "isse": 7746,
  "issement": 31931,
  "issements": 44928,
  "issen": 10987,
  "issenschaft": 26657,
  "issent": 25450,
  "isser": 23714,
  "isses": 40487,
  "issez": 43033,
  "issible": 41073,
  "issimo": 34966,
  "ission": 3106,
  "issions": 7922,
  "issippi": 19895,
  "isso": 41279,
  "isson": 30472,
  "issors": 13839,
  "isst": 45802,
  "issy": 28617,
  "issÃ¤": 38354,
  "ist": 468,
  "ista": 5236,
  "istan": 7559,
  "istance": 20829,
  "istani": 46301,
  "istant": 10329,
  "istas": 14858,
  "iste": 8375,
  "isted": 33250,
  "istem": 43958,
  "isten": 4821,
  "istent": 25367,
  "ister": 1964,
  "isters": 7423,
  "istes": 22368,
  "isti": 45308,
  "istic": 3142,
  "istical": 42686,
  "istically": 20458,
  "istics": 6006,
  "istinct": 13986,
  "istine": 42745,
  "istle": 16088,
  "istles": 29923,
  "istling": 37174,
  "isto": 9334,
  "istoire": 27053,
  "istol": 34431,
  "iston": 47345,
  "istor": 23882,
  "istors": 46976,
  "istry": 5980,
  "ists": 1751,
  "isty": 38618,
  "istÃ¤": 24954,
  "isu": 25871,
  "isure": 28084,
  "isy": 14169,
  "isz": 23848,
  "isÃ©": 22118,
  "isÃ©e": 50027,
  "isÃ©s": 47151,
  "it": 270,
  "ita": 2786,
  "itable": 16772,
  "itage": 12069,
  "itaire": 30914,
  "ital": 1686,
  "itals": 11118,
  "itan": 9670,
  "itar": 3981,
  "itarian": 13707,
  "itary": 4109,
  "itas": 14182,
  "itat": 14032,
  "itate": 8086,
  "itated": 18266,
  "itates": 30035,
  "itating": 16350,
  "itation": 4614,
  "itations": 31265,
  "itative": 14275,
  "itch": 1549,
  "itched": 41328,
  "itchen": 5825,
  "itchens": 47314,
  "ite": 642,
  "itect": 5739,
  "ited": 1226,
  "iteit": 45967,
  "itel": 38906,
  "itely": 1959,
  "iten": 6009,
  "iter": 1681,
  "ites": 3324,
  "itesse": 46720,
  "itet": 16341,
  "itez": 32049,
  "ith": 355,
  "ithe": 45381,
  "ither": 1839,
  "ithm": 32674,
  "ithmetic": 41179,
  "iti": 8707,
  "itic": 44592,
  "ities": 1088,
  "itime": 33228,
  "iting": 1748,
  "ition": 849,
  "itional": 2628,
  "itionally": 15899,
  "itions": 2451,
  "itious": 16401,
  "itis": 16074,
  "itive": 2187,
  "itives": 38970,
  "itiÃ©": 45484,
  "itness": 6394,
  "ito": 3528,
  "itol": 21086,
  "itor": 3029,
  "itors": 9862,
  "itos": 11343,
  "itous": 39831,
  "its": 1208,
  "itsu": 35711,
  "itt": 593,
  "itta": 21870,
  "itte": 9786,
  "itted": 3944,
  "ittee": 5375,
  "ittees": 23403,
  "ittel": 47265,
  "itten": 2987,
  "ittens": 39449,
  "itter": 3904,
  "itters": 38873,
  "itti": 21558,
  "itting": 2414,
  "ittle": 703,
  "itto": 34924,
  "itty": 10016,
  "ittÃ¤": 45666,
  "itu": 6380,
  "ituation": 19306,
  "itud": 21875,
  "itude": 4377,
  "itudes": 16451,
  "itung": 35563,
  "iture": 11156,
  "itures": 41869,
  "itus": 30973,
  "itute": 6559,
  "itution": 6518,
  "itutional": 41859,
  "ity": 507,
  "itz": 6862,
  "itzer": 16845,
  "itzerland": 22932,
  "itÃ¤": 13187,
  "itÃ¤t": 14053,
  "itÃ¤ten": 49289,
  "itÃ©": 5066,
  "itÃ©s": 16637,
  "itÃł": 12445,
  "iu": 5951,
  "ium": 2197,
  "iums": 47954,
  "ius": 4872,
  "iv": 592,
  "iva": 5931,
  "ivable": 34376,
  "ival": 3576,
  "ivals": 17759,
  "ivamente": 23957,
  "ivan": 24193,
  "ivas": 24759,
  "ivat": 44701,
  "ive": 488,
  "ived": 3194,
  "ivel": 36504,
  "ively": 3413,
  "iven": 5709,
  "iveness": 8477,
  "ivent": 38683,
  "iver": 1837,
  "ivering": 48940,
  "ivers": 1762,
  "iversary": 12078,
  "iverse": 5376,
  "iversity": 2550,
  "iverso": 36969,
  "ivery": 8549,
  "ives": 1539,
  "ivesse": 40812,
  "ivi": 33448,
  "ivia": 18503,
  "ivid": 1843,
  "ividad": 33490,
  "ividade": 41121,
  "ividades": 41938,
  "ividual": 33323,
  "ivil": 4639,
  "iving": 2123,
  "ivities": 43539,
  "ivity": 4253,
  "ivo": 6340,
  "ivol": 21356,
  "ivos": 16501,
  "ivot": 13142,
  "ix": 970,
  "ixa": 19195,
  "ixe": 42369,
  "ixed": 40303,
  "ixel": 34599,
  "ixes": 36005,
  "ixo": 15617,
  "ixon": 23226,
  "ixÃ²": 12672,
  "ixÃŃ": 33226,
  "iy": 4727,
  "iya": 23622,
  "iye": 30306,
  "iyet": 34747,
  "iyi": 40541,
  "iyim": 46966,
  "iyor": 8436,
  "iyorsun": 24556,
  "iyorum": 17713,
  "iyoruz": 26233,
  "iz": 590,
  "iza": 13427,
  "izable": 22395,
  "izaciÃ³n": 27603,
  "izada": 39600,
  "izado": 27441,
  "izar": 9736,
  "izard": 17523,
  "ization": 2144,
  "izations": 14455,
  "izaÃ§Ã£o": 27467,
  "ize": 1125,
  "ized": 1602,
  "izen": 23161,
  "izens": 31586,
  "izer": 6545,
  "izers": 22525,
  "izes": 5660,
  "izi": 24300,
  "iziert": 43590,
  "izin": 36367,
  "izing": 3319,
  "izione": 35740,
  "izo": 19055,
  "izon": 24057,
  "izophren": 38695,
  "izz": 8072,
  "izza": 7176,
  "izzard": 31062,
  "izzy": 49393,
  "iÃ£o": 24660,
  "iÃ§Ã£o": 16661,
  "iÃ§Ãµes": 38038,
  "iÃ¨me": 24541,
  "iÃ¨re": 10195,
  "iÃ¨rement": 29922,
  "iÃ¨res": 39408,
  "iÃ©": 50078,
  "iÃ©n": 5770,
  "iÃ³": 7138,
  "iÃ³n": 2560,
  "iÃŁ": 6230,
  "iÃŁe": 47828,
  "iÃŁt": 11539,
  "iÄħ": 11404,
  "iÄĩ": 12757,
  "iÄĻ": 5034,
  "iÄĻcy": 47303,
  "iÄĻdzy": 49485,
  "iÄŁ": 24392,
  "iÄŁi": 32402,
  "iÅĤ": 40622,
  "iÅŁ": 9496,
  "j": 73,
  "ja": 2938,
  "jac": 19586,
  "jach": 45059,
  "jack": 33614,
  "jadi": 30574,
  "jae": 31760,
  "jak": 36230,
  "jal": 22600,
  "jam": 24267,
  "jamin": 21241,
  "jan": 14763,
  "jang": 26925,
  "jar": 10150,
  "jas": 19221,
  "jat": 44254,
  "jaw": 22199,
  "jay": 46451,
  "jaz": 34820,
  "jcie": 43474,
  "jd": 37109,
  "je": 2884,
  "ject": 1020,
  "jed": 40543,
  "jego": 39738,
  "jek": 27023,
  "jekt": 14930,
  "jem": 30833,
  "jen": 15378,
  "jenigen": 48176,
  "jeong": 45942,
  "jer": 14219,
  "jes": 16549,
  "jest": 39291,
  "jet": 7108,
  "jets": 25349,
  "ji": 4013,
  "jiang": 41098,
  "jin": 13970,
  "jing": 38863,
  "jis": 40371,
  "jm": 35195,
  "jo": 5134,
  "job": 50208,
  "joint": 48613,
  "jon": 15735,
  "jor": 2337,
  "jos": 19136,
  "jour": 8696,
  "jourd": 13111,
  "jours": 11615,
  "joy": 1994,
  "js": 25530,
  "jsk": 32625,
  "ju": 8954,
  "jud": 9218,
  "jug": 42068,
  "juk": 31140,
  "jun": 10010,
  "juna": 44469,
  "jung": 29773,
  "just": 3424,
  "jut": 44090,
  "jÃ¤": 38476,
  "jÃ¤hr": 49418,
  "jÃ¤n": 48365,
  "jÃł": 11313,
  "jÄħ": 8555,
  "jÄĻ": 11115,
  "jÅĽÄĩ": 44536,
  "k": 74,
  "ka": 2330,
  "kaa": 47068,
  "kaar": 34399,
  "kach": 41326,
  "kad": 34985,
  "kah": 37605,
  "kaha": 36572,
  "kal": 19990,
  "kam": 39917,
  "kami": 48737,
  "kan": 5225,
  "kannt": 29680,
  "kap": 34334,
  "kar": 12303,
  "karang": 28847,
  "kas": 32876,
  "kat": 20876,
  "kay": 789,
  "ke": 330,
  "kea": 39153,
  "ked": 34601,
  "kee": 21687,
  "keep": 16055,
  "keeper": 23083,
  "keepers": 43153,
  "keeping": 25769,
  "kef": 47531,
  "kehr": 22833,
  "keit": 9238,
  "keiten": 21049,
  "kek": 41888,
  "kel": 7124,
  "keley": 23047,
  "kelijk": 43976,
  "kell": 43723,
  "keln": 32099,
  "kelt": 25798,
  "kem": 29597,
  "ken": 2653,
  "kennt": 41838,
  "ker": 5767,
  "kers": 24259,
  "kes": 5993,
  "ket": 5758,
  "key": 4119,
  "keys": 18847,
  "kg": 18302,
  "kh": 21021,
  "ki": 2984,
  "kich": 48349,
  "kick": 42427,
  "kids": 35015,
  "kie": 22872,
  "kiego": 42349,
  "kiej": 45145,
  "kiem": 26116,
  "kien": 42134,
  "kil": 33534,
  "kill": 34213,
  "kim": 25112,
  "kin": 5843,
  "kind": 14445,
  "king": 5092,
  "kins": 10277,
  "kit": 22681,
  "kiye": 31137,
  "kk": 12809,
  "kke": 47764,
  "kl": 7837,
  "kle": 14677,
  "klich": 9056,
  "klore": 45044,
  "klÃ¤r": 45988,
  "km": 17950,
  "kn": 5457,
  "know": 15869,
  "known": 6861,
  "ko": 4093,
  "kok": 33754,
  "kol": 36620,
  "kom": 20557,
  "kommen": 13675,
  "kon": 18295,
  "kook": 38318,
  "kop": 43855,
  "kor": 19339,
  "kov": 33516,
  "kr": 38553,
  "kra": 42913,
  "kraft": 47288,
  "kre": 27885,
  "krit": 34580,
  "kry": 43298,
  "krÃ¤": 42319,
  "ks": 1694,
  "ksam": 28665,
  "ksen": 39296,
  "ksi": 20697,
  "ksom": 32663,
  "kt": 2320,
  "kte": 18844,
  "kten": 47120,
  "ktion": 9780,
  "ktop": 13031,
  "ktor": 28359,
  "ktÃ³": 43073,
  "ku": 5279,
  "kum": 49576,
  "kun": 22531,
  "kung": 40100,
  "kur": 33503,
  "kus": 35080,
  "kward": 10618,
  "ky": 4133,
  "kÃ¤": 21036,
  "kÃ³w": 23849,
  "kÃ¶": 34990,
  "kÄħ": 26304,
  "kÄĻ": 15724,
  "kÅĤad": 15317,
  "l": 75,
  "la": 875,
  "lab": 44990,
  "lace": 19837,
  "lad": 9290,
  "ladÄ±": 43041,
  "ladÄ±m": 37282,
  "laf": 33037,
  "lag": 27298,
  "lage": 22519,
  "lagen": 29177,
  "lah": 14918,
  "laim": 10970,
  "laimed": 22642,
  "laimer": 35220,
  "lair": 24319,
  "lais": 21232,
  "lait": 35235,
  "lak": 41472,
  "lam": 4326,
  "lama": 40868,
  "lamation": 43233,
  "lan": 8658,
  "lance": 37271,
  "land": 1661,
  "lando": 16201,
  "lands": 10230,
  "lane": 46121,
  "lang": 25241,
  "lapping": 15639,
  "lar": 2200,
  "lara": 17736,
  "laration": 36087,
  "larda": 40658,
  "lardan": 41188,
  "lares": 19415,
  "larÄ±": 10197,
  "larÄ±n": 14716,
  "larÄ±nÄ±": 31046,
  "las": 7743,
  "lass": 14549,
  "lasse": 40255,
  "lassen": 44898,
  "lasses": 25479,
  "last": 15459,
  "lasting": 29346,
  "lat": 14087,
  "late": 17593,
  "lated": 38539,
  "latego": 24195,
  "lation": 24278,
  "laub": 20798,
  "laud": 7739,
  "lauf": 36488,
  "laugh": 33181,
  "laughing": 4986,
  "laughs": 3608,
  "laughter": 5330,
  "laus": 22590,
  "lause": 4512,
  "lav": 36243,
  "lave": 27995,
  "law": 5901,
  "laws": 33476,
  "lax": 25923,
  "lay": 8376,
  "laÅŁ": 16803,
  "ld": 348,
  "lden": 35963,
  "ldigt": 19341,
  "le": 306,
  "leader": 47716,
  "leading": 28012,
  "lean": 28499,
  "leans": 24008,
  "lear": 5797,
  "learning": 47204,
  "lease": 1122,
  "leased": 41087,
  "leb": 28512,
  "leben": 41467,
  "lebr": 3735,
  "lect": 1809,
  "lection": 5450,
  "lectric": 38421,
  "led": 1493,
  "ledge": 3042,
  "lee": 14238,
  "leen": 28238,
  "leep": 7927,
  "left": 41761,
  "leg": 6363,
  "lege": 35754,
  "legen": 22936,
  "legt": 22745,
  "leh": 14557,
  "lei": 35436,
  "leich": 8445,
  "leigh": 45533,
  "leist": 46820,
  "lek": 29205,
  "lem": 10386,
  "leme": 47240,
  "lement": 3054,
  "lements": 17988,
  "len": 6698,
  "lene": 21323,
  "leness": 45887,
  "length": 45390,
  "leo": 41041,
  "ler": 1918,
  "lerde": 40893,
  "lere": 29904,
  "leri": 11478,
  "lerin": 22417,
  "lerini": 33760,
  "lers": 11977,
  "lerweile": 36055,
  "les": 904,
  "lesh": 11802,
  "lesia": 48507,
  "less": 1832,
  "lessly": 12048,
  "lessness": 26663,
  "lest": 35745,
  "let": 2631,
  "leton": 14806,
  "lets": 12541,
  "lett": 32547,
  "lette": 36563,
  "letter": 21248,
  "lev": 28316,
  "levant": 25638,
  "level": 12418,
  "lever": 38099,
  "lex": 2021,
  "ley": 3420,
  "leye": 46303,
  "lez": 20336,
  "leÅŁ": 33284,
  "li": 2081,
  "lia": 14218,
  "liament": 10709,
  "liamo": 49926,
  "lib": 38270,
  "lic": 1050,
  "lica": 44266,
  "lich": 1739,
  "liche": 10185,
  "lichen": 10193,
  "licher": 25215,
  "liches": 45502,
  "lichkeit": 41096,
  "licht": 20238,
  "lict": 6017,
  "licting": 36580,
  "lide": 31264,
  "lie": 6302,
  "lied": 39459,
  "lier": 2753,
  "liers": 23646,
  "lies": 24119,
  "liest": 16850,
  "lieÃŁ": 24476,
  "lieÃŁen": 38665,
  "lieÃŁlich": 44697,
  "life": 9073,
  "lift": 29814,
  "lifting": 34724,
  "lig": 5073,
  "liga": 25668,
  "ligen": 35158,
  "ligh": 36641,
  "light": 2764,
  "lightly": 44872,
  "lights": 20827,
  "ligt": 16770,
  "lihood": 21648,
  "lijk": 12416,
  "lik": 13462,
  "like": 4092,
  "lim": 4197,
  "lime": 40941,
  "limited": 18692,
  "lin": 5045,
  "line": 1889,
  "linear": 28263,
  "lined": 13564,
  "liner": 36849,
  "lines": 11045,
  "liness": 32268,
  "ling": 1688,
  "lingen": 39900,
  "lings": 20823,
  "lingt": 45219,
  "lington": 45996,
  "lining": 31079,
  "link": 22473,
  "lins": 49682,
  "lio": 19987,
  "lish": 1933,
  "lished": 4173,
  "lishing": 18533,
  "list": 8264,
  "listed": 34890,
  "lists": 36693,
  "lit": 23062,
  "liter": 40632,
  "liv": 45997,
  "live": 45273,
  "lived": 46554,
  "lively": 37553,
  "liyor": 49309,
  "liÅĽmy": 38452,
  "lk": 43308,
  "ll": 285,
  "lla": 3505,
  "llah": 31884,
  "llan": 32919,
  "lle": 2447,
  "lled": 5929,
  "lleicht": 10631,
  "llen": 19191,
  "ller": 4658,
  "llers": 20278,
  "lles": 19126,
  "lli": 16320,
  "llie": 21382,
  "lling": 2669,
  "llo": 1913,
  "llor": 19205,
  "llow": 1202,
  "lls": 43909,
  "lly": 13020,
  "llÃ¤": 17370,
  "lo": 752,
  "load": 2907,
  "loc": 5842,
  "lock": 4102,
  "locks": 34896,
  "loe": 22349,
  "log": 4987,
  "logo": 38212,
  "lol": 34606,
  "lon": 14864,
  "long": 13025,
  "loo": 38511,
  "look": 12747,
  "looked": 30953,
  "looking": 16129,
  "loop": 46623,
  "lor": 6746,
  "lord": 22839,
  "lords": 37370,
  "los": 9389,
  "lot": 43571,
  "loud": 29221,
  "lov": 28257,
  "love": 28459,
  "low": 14107,
  "lower": 34598,
  "loyd": 30285,
  "lr": 40987,
  "ls": 11784,
  "lt": 2282,
  "ltry": 49010,
  "lu": 2781,
  "lud": 1471,
  "lude": 32334,
  "luded": 44412,
  "luding": 20626,
  "luence": 40432,
  "luent": 43518,
  "luk": 42563,
  "lung": 17850,
  "lungen": 45434,
  "lungs": 49876,
  "lus": 3063,
  "lusion": 6485,
  "lusive": 7233,
  "lv": 14574,
  "lvania": 17588,
  "ly": 356,
  "lya": 45106,
  "lying": 7310,
  "lymp": 9793,
  "lyn": 9896,
  "lynn": 31921,
  "lys": 44193,
  "lÃ¤": 22882,
  "lÃ©": 29728,
  "lÃ¼": 25288,
  "lÃł": 14972,
  "lÄ±": 9811,
  "lÄ±k": 22359,
  "lÄ±nda": 27967,
  "lÄ±ÅŁ": 40840,
  "m": 76,
  "ma": 1696,
  "maal": 30371,
  "maan": 39625,
  "mac": 37065,
  "machen": 43981,
  "machine": 46061,
  "mad": 16413,
  "made": 10341,
  "madÄ±": 46107,
  "mag": 37941,
  "mail": 11799,
  "main": 49417,
  "mak": 8520,
  "make": 38705,
  "maker": 18821,
  "makers": 15870,
  "making": 12402,
  "mal": 5579,
  "male": 45760,
  "mals": 34978,
  "mam": 23678,
  "man": 1601,
  "mana": 14524,
  "manas": 36226,
  "mand": 22396,
  "mani": 43717,
  "mania": 37268,
  "mann": 14912,
  "mans": 44734,
  "manship": 42782,
  "manuel": 31385,
  "map": 24223,
  "mar": 6209,
  "mara": 37925,
  "mare": 15455,
  "mares": 32760,
  "mark": 5638,
  "market": 16414,
  "markets": 48850,
  "marks": 37307,
  "markt": 38552,
  "mart": 18696,
  "mas": 3799,
  "mass": 47386,
  "master": 21640,
  "masÄ±": 23477,
  "mat": 15677,
  "mate": 13963,
  "mates": 10977,
  "math": 24761,
  "matic": 25915,
  "max": 41167,
  "may": 10338,
  "maya": 24600,
  "maybe": 39380,
  "mayÄ±": 42819,
  "mayÄ±n": 32541,
  "maz": 21283,
  "mb": 2504,
  "mber": 4508,
  "mble": 8737,
  "mbol": 5612,
  "mbre": 20014,
  "me": 1398,
  "meal": 32914,
  "med": 1912,
  "meden": 43883,
  "medi": 3130,
  "medim": 48730,
  "mee": 42952,
  "meg": 42800,
  "mek": 13132,
  "mel": 10909,
  "mellow": 47342,
  "melon": 22710,
  "mem": 17886,
  "member": 38249,
  "men": 2558,
  "meno": 43232,
  "mens": 45743,
  "ment": 518,
  "mental": 15875,
  "mentation": 19631,
  "mente": 4082,
  "mented": 14684,
  "mentioned": 46842,
  "ments": 1117,
  "mer": 936,
  "mera": 35984,
  "merce": 17141,
  "mercial": 39260,
  "meric": 1555,
  "mern": 44243,
  "mers": 18552,
  "mes": 5814,
  "mesan": 43826,
  "mesi": 30314,
  "met": 5537,
  "metal": 39857,
  "meter": 33058,
  "metics": 31236,
  "metro": 45400,
  "metros": 29570,
  "meye": 18631,
  "mez": 19917,
  "mi": 3057,
  "mia": 29958,
  "mic": 13195,
  "mid": 25394,
  "midt": 39000,
  "mie": 25210,
  "mies": 38374,
  "mil": 28674,
  "mile": 44927,
  "mill": 18841,
  "millimeter": 38274,
  "million": 40388,
  "min": 2367,
  "mind": 13733,
  "minded": 23310,
  "ming": 2810,
  "mingham": 34164,
  "minist": 4192,
  "minister": 13688,
  "minster": 45688,
  "minute": 18256,
  "mir": 19834,
  "miral": 35905,
  "mis": 45634,
  "mission": 29797,
  "mist": 48709,
  "mit": 3508,
  "mith": 41708,
  "mitt": 15548,
  "mittel": 33960,
  "miyor": 28585,
  "miyorum": 29291,
  "miÅŁ": 10510,
  "ml": 15480,
  "mm": 2174,
  "mma": 29577,
  "mmm": 37090,
  "mn": 40459,
  "mniej": 47658,
  "mo": 3280,
  "mod": 8014,
  "modern": 42359,
  "moi": 29292,
  "moil": 43683,
  "mom": 42544,
  "mon": 3317,
  "monary": 46386,
  "mond": 12171,
  "mons": 27229,
  "mont": 28720,
  "month": 23534,
  "moon": 33895,
  "mooth": 30803,
  "mor": 40220,
  "more": 3138,
  "mos": 3415,
  "most": 1761,
  "mot": 29778,
  "mother": 11930,
  "motion": 44968,
  "mount": 45275,
  "mouth": 22357,
  "mp": 2455,
  "mpfen": 45316,
  "mpre": 6516,
  "ms": 2592,
  "mt": 42744,
  "mu": 20140,
  "mud": 31916,
  "muffled": 47503,
  "mumbles": 14914,
  "mumbling": 39528,
  "mun": 23717,
  "mund": 35578,
  "munition": 31262,
  "mus": 18761,
  "music": 7572,
  "mut": 38326,
  "muÅŁ": 30378,
  "my": 2226,
  "mÃ¤": 22437,
  "mÃ¤n": 43946,
  "mÃ¤ÃŁ": 32450,
  "mÃ¤ÃŁig": 43132,
  "mÃªme": 27770,
  "mÃ¼ÅŁ": 38211,
  "mÄ±ÅŁ": 11370,
  "n": 77,
  "na": 629,
  "nad": 36567,
  "naden": 45578,
  "nae": 45362,
  "nah": 12411,
  "nahme": 32796,
  "nahmen": 24221,
  "nai": 44661,
  "naire": 32551,
  "naires": 49551,
  "naj": 20981,
  "nak": 16852,
  "nal": 4660,
  "nam": 5378,
  "name": 16344,
  "named": 33465,
  "nament": 10934,
  "naments": 23680,
  "namon": 17107,
  "nan": 17622,
  "nant": 25928,
  "nants": 41508,
  "nap": 37252,
  "nar": 20062,
  "narrator": 48634,
  "nas": 18979,
  "nat": 12241,
  "national": 43387,
  "natural": 16296,
  "naudible": 20474,
  "nd": 273,
  "nde": 16404,
  "nder": 20535,
  "ne": 716,
  "nea": 22160,
  "neath": 7000,
  "necess": 15975,
  "neck": 47921,
  "nect": 1569,
  "ned": 9232,
  "nee": 48210,
  "neg": 28561,
  "nego": 11858,
  "neh": 30540,
  "nehmen": 14669,
  "nehmer": 38370,
  "nej": 11794,
  "nek": 23255,
  "nel": 6396,
  "nell": 8903,
  "nelle": 37365,
  "nels": 19936,
  "nem": 25989,
  "nement": 25995,
  "nen": 2866,
  "nent": 17469,
  "neo": 42164,
  "ner": 1193,
  "ners": 2999,
  "nes": 4081,
  "nesday": 10362,
  "nesota": 13689,
  "ness": 1287,
  "net": 7129,
  "neten": 43462,
  "netes": 22334,
  "new": 7686,
  "ney": 2397,
  "neys": 14859,
  "nez": 28018,
  "ng": 872,
  "nga": 23165,
  "ngth": 3674,
  "ngulo": 37308,
  "nh": 5728,
  "ni": 3722,
  "nia": 12679,
  "nic": 7692,
  "nica": 32687,
  "nicas": 40672,
  "nicos": 48674,
  "nie": 2766,
  "niej": 10402,
  "niejs": 30295,
  "niejsze": 44258,
  "nier": 19165,
  "nies": 40549,
  "niest": 38896,
  "night": 6402,
  "nik": 13123,
  "nikÃ³w": 47447,
  "nim": 39223,
  "nin": 22955,
  "nine": 46140,
  "ning": 773,
  "ningar": 29895,
  "ningen": 23137,
  "nings": 24451,
  "nio": 41084,
  "nis": 10661,
  "nisse": 31481,
  "nite": 24843,
  "nity": 28120,
  "niÄĻ": 35938,
  "nn": 26384,
  "no": 1771,
  "noc": 26694,
  "noch": 41608,
  "noise": 42641,
  "nold": 18093,
  "nolds": 28849,
  "nom": 15819,
  "non": 30092,
  "noon": 6376,
  "nor": 19048,
  "norm": 13403,
  "normal": 23157,
  "nos": 16751,
  "nosis": 46080,
  "nost": 36414,
  "not": 2247,
  "note": 22178,
  "nothing": 49518,
  "nous": 47008,
  "nov": 4185,
  "nova": 39486,
  "now": 3785,
  "nox": 29129,
  "noÅĽci": 16438,
  "noÅĽÄĩ": 23293,
  "ns": 3695,
  "nsinn": 46134,
  "nt": 580,
  "nte": 9358,
  "nten": 14970,
  "nty": 21772,
  "nu": 16241,
  "number": 41261,
  "nun": 47518,
  "nung": 15539,
  "nut": 18316,
  "nuts": 29251,
  "ny": 1634,
  "nya": 7457,
  "nych": 9399,
  "nym": 12996,
  "nymi": 31813,
  "nyt": 38335,
  "nÃ©": 15055,
  "nÃŃ": 28988,
  "nÄ±n": 33484,
  "nÄħ": 13113,
  "nÄĽ": 31617,
  "o": 78,
  "oa": 23254,
  "oard": 25774,
  "ob": 996,
  "oba": 19481,
  "obe": 20524,
  "obed": 44904,
  "oben": 46213,
  "ober": 7243,
  "obi": 19293,
  "obia": 24613,
  "obic": 22234,
  "obil": 21725,
  "obile": 13632,
  "object": 41070,
  "obook": 35876,
  "obra": 24393,
  "obs": 16537,
  "oby": 13944,
  "obyl": 49913,
  "oc": 905,
  "oca": 24035,
  "ocado": 21636,
  "ocal": 36483,
  "ocaly": 22665,
  "ocalypse": 30183,
  "ocalyptic": 47407,
  "ocar": 47993,
  "ocate": 42869,
  "ocation": 27943,
  "occ": 43280,
  "occup": 46819,
  "och": 8997,
  "ochond": 40172,
  "ocide": 27791,
  "ock": 1560,
  "ocket": 31380,
  "ockey": 46164,
  "ocking": 31730,
  "ocks": 35507,
  "oco": 11198,
  "ocol": 4154,
  "ocolate": 5719,
  "ocr": 3617,
  "ocracy": 38186,
  "ocratic": 38883,
  "ocre": 42454,
  "ocument": 30439,
  "ocumented": 35739,
  "ocur": 20885,
  "ocus": 15206,
  "ocused": 33176,
  "ocy": 31078,
  "od": 378,
  "oda": 13449,
  "odar": 43211,
  "ode": 1429,
  "oded": 12340,
  "odel": 41147,
  "oden": 33482,
  "oder": 19866,
  "odes": 4789,
  "odge": 19315,
  "odi": 30727,
  "odia": 35926,
  "odie": 49257,
  "odies": 6087,
  "oding": 8616,
  "odka": 30707,
  "odle": 30013,
  "odles": 35192,
  "odo": 17423,
  "odor": 34024,
  "odore": 34239,
  "odox": 22189,
  "ods": 19768,
  "odu": 34873,
  "odus": 32419,
  "ody": 843,
  "odynam": 21399,
  "odynamic": 34988,
  "odynamics": 35483,
  "odzi": 14543,
  "oe": 7921,
  "of": 2670,
  "off": 4506,
  "offs": 19231,
  "oft": 6750,
  "og": 664,
  "oga": 9833,
  "ogan": 21576,
  "ogen": 8799,
  "ogene": 23360,
  "ogeneous": 31112,
  "ogenic": 25473,
  "ogenous": 45519,
  "ogens": 35325,
  "oger": 42719,
  "ogether": 9622,
  "ogg": 36754,
  "ogi": 27202,
  "ogie": 39031,
  "ogle": 3127,
  "oglo": 45841,
  "ogly": 38353,
  "ogn": 2912,
  "ogo": 23515,
  "ogr": 47810,
  "ograf": 19815,
  "ogram": 12820,
  "ograp": 12440,
  "ograph": 3108,
  "ographer": 13624,
  "ographers": 47222,
  "ographic": 12295,
  "ographical": 48434,
  "ographics": 29933,
  "ography": 5820,
  "ogue": 7213,
  "ogy": 7794,
  "oh": 1445,
  "ohl": 12768,
  "ohn": 2359,
  "ohner": 49935,
  "oi": 4869,
  "oice": 10849,
  "oid": 17079,
  "oin": 14312,
  "oine": 44454,
  "oint": 3600,
  "ointed": 33041,
  "oir": 9043,
  "oire": 20378,
  "oires": 40483,
  "ois": 7376,
  "oise": 38800,
  "oit": 27845,
  "oj": 37224,
  "ok": 453,
  "oka": 15289,
  "okay": 26061,
  "oke": 2949,
  "oked": 9511,
  "okee": 49319,
  "oken": 8406,
  "oker": 16722,
  "okes": 8606,
  "oki": 17056,
  "oking": 5953,
  "oko": 13704,
  "okol": 49207,
  "okrat": 19795,
  "oks": 25500,
  "oku": 13275,
  "okus": 38480,
  "ol": 401,
  "ola": 4711,
  "olan": 23754,
  "oland": 30063,
  "olar": 15276,
  "olare": 43141,
  "olas": 14104,
  "olate": 48278,
  "old": 2641,
  "oldown": 40625,
  "olds": 31518,
  "ole": 4812,
  "olen": 11940,
  "oler": 27035,
  "oles": 7456,
  "olesome": 45880,
  "olf": 7491,
  "oli": 9384,
  "olia": 29760,
  "olic": 7940,
  "olics": 33763,
  "olie": 49448,
  "olin": 31178,
  "olina": 39750,
  "oline": 18773,
  "olis": 16466,
  "olit": 33704,
  "olith": 29131,
  "olithic": 42878,
  "oll": 1833,
  "olla": 27160,
  "ollar": 30486,
  "ollen": 26669,
  "ollo": 22388,
  "ollow": 49082,
  "olly": 7403,
  "oln": 14110,
  "olo": 7902,
  "olog": 1132,
  "ologia": 24103,
  "ologic": 36661,
  "ological": 4383,
  "ologically": 17157,
  "ologie": 20121,
  "ologies": 6204,
  "ologique": 43136,
  "ologist": 9201,
  "ologists": 12256,
  "ologne": 44162,
  "ologue": 42298,
  "ology": 1793,
  "ologÃŃa": 29987,
  "olon": 38780,
  "olor": 36182,
  "olph": 31154,
  "ols": 19385,
  "olt": 4837,
  "olu": 39754,
  "olut": 2308,
  "olutely": 2553,
  "olution": 3386,
  "olutions": 15892,
  "olve": 37361,
  "olved": 29110,
  "oly": 16453,
  "olÃ©": 47530,
  "olÃ³g": 27629,
  "om": 298,
  "oma": 6440,
  "oman": 4277,
  "omas": 7092,
  "omat": 34295,
  "omatic": 13143,
  "omb": 3548,
  "ombres": 29947,
  "ome": 423,
  "omed": 17671,
  "omedical": 41086,
  "omen": 4726,
  "omena": 21041,
  "omer": 14301,
  "omes": 18168,
  "omet": 649,
  "ometer": 13606,
  "ometers": 34675,
  "omething": 23445,
  "ometimes": 45890,
  "ometown": 21462,
  "ometric": 29470,
  "ometry": 34730,
  "omez": 42028,
  "omi": 9220,
  "omial": 47429,
  "omiast": 25086,
  "omic": 21401,
  "omics": 29884,
  "omie": 40120,
  "omin": 6981,
  "omina": 49217,
  "omination": 46970,
  "oming": 10539,
  "ominous": 44581,
  "omm": 1204,
  "omma": 30243,
  "omme": 15117,
  "ommen": 5132,
  "ommes": 16733,
  "ommt": 22230,
  "ommy": 10165,
  "omn": 38131,
  "omnia": 45438,
  "omo": 13395,
  "omon": 24488,
  "omorph": 32702,
  "omos": 40934,
  "omp": 8586,
  "oms": 4785,
  "omy": 8488,
  "on": 266,
  "ona": 4037,
  "onak": 40213,
  "onal": 21523,
  "onas": 38027,
  "once": 26015,
  "onces": 8498,
  "oncÃ©": 43752,
  "ond": 684,
  "onda": 12233,
  "onde": 7259,
  "onden": 37982,
  "onder": 8548,
  "ondere": 33447,
  "ondern": 10881,
  "onders": 49308,
  "ondo": 27720,
  "onds": 10166,
  "ondu": 31295,
  "one": 546,
  "oned": 19009,
  "onen": 32923,
  "onent": 30365,
  "onents": 40496,
  "oner": 32949,
  "ones": 2213,
  "oney": 1308,
  "ong": 556,
  "onge": 15430,
  "ongo": 25729,
  "ongs": 42478,
  "oni": 17049,
  "onia": 16999,
  "onian": 43294,
  "onic": 11630,
  "onie": 32242,
  "oning": 16638,
  "only": 25202,
  "onn": 19968,
  "onna": 784,
  "onnaise": 30925,
  "onne": 22419,
  "onnen": 34269,
  "onner": 38885,
  "ono": 8957,
  "onom": 12481,
  "onomy": 23423,
  "onos": 50059,
  "ons": 892,
  "onscious": 11941,
  "onse": 3739,
  "onsense": 13039,
  "onsider": 35879,
  "onsieur": 22293,
  "onsin": 17358,
  "onst": 4068,
  "ont": 896,
  "onta": 45442,
  "onte": 10219,
  "ontec": 35444,
  "onter": 41806,
  "ontin": 23039,
  "onto": 7556,
  "onton": 45529,
  "onut": 40075,
  "ony": 2526,
  "onya": 44727,
  "onym": 12732,
  "onymous": 18092,
  "onz": 21972,
  "oo": 1986,
  "ood": 1816,
  "oof": 29496,
  "ooh": 16713,
  "ook": 1212,
  "ooked": 29262,
  "ookie": 39611,
  "ooky": 24091,
  "ool": 1092,
  "ools": 29298,
  "oon": 4106,
  "oons": 16450,
  "ooo": 18728,
  "oooo": 12506,
  "ooooo": 47116,
  "oop": 15812,
  "oor": 28656,
  "oot": 6259,
  "ooth": 4817,
  "op": 404,
  "opa": 33097,
  "opard": 22918,
  "opath": 27212,
  "ope": 1114,
  "oped": 27277,
  "opedia": 47795,
  "open": 15752,
  "oper": 7192,
  "operation": 43493,
  "opers": 33338,
  "opes": 30545,
  "opez": 34560,
  "opf": 21828,
  "oph": 5317,
  "opher": 16754,
  "ophile": 49242,
  "ophobia": 39026,
  "ophone": 32561,
  "ophren": 38562,
  "ophy": 29087,
  "opia": 22376,
  "opian": 38447,
  "opic": 40216,
  "oping": 26125,
  "opl": 33224,
  "oplan": 49768,
  "ople": 548,
  "oples": 15661,
  "opod": 46684,
  "opol": 19946,
  "opolit": 39176,
  "opoly": 27891,
  "opot": 45225,
  "opp": 17158,
  "opping": 32799,
  "ops": 3370,
  "opt": 5747,
  "opus": 23280,
  "opy": 19680,
  "oqu": 29826,
  "oque": 29743,
  "or": 284,
  "ora": 3252,
  "orable": 15249,
  "orage": 29226,
  "oral": 16819,
  "orama": 32988,
  "orang": 37909,
  "orar": 42967,
  "oras": 40928,
  "oration": 9357,
  "orb": 30907,
  "orc": 36003,
  "ord": 765,
  "ordable": 36793,
  "ordan": 8968,
  "orde": 15127,
  "orden": 19058,
  "order": 4687,
  "orders": 10400,
  "ordin": 6241,
  "ordinate": 37326,
  "ording": 3357,
  "ordnung": 31829,
  "ordo": 23872,
  "ordon": 17328,
  "ordre": 48981,
  "ords": 5703,
  "ordu": 28655,
  "ordum": 41627,
  "ore": 418,
  "orean": 25885,
  "ored": 2769,
  "orem": 37956,
  "oren": 10948,
  "orer": 17618,
  "ores": 2706,
  "orest": 38620,
  "oret": 26262,
  "orf": 28030,
  "org": 4646,
  "organ": 12372,
  "orge": 4685,
  "orgeous": 11690,
  "orgt": 36698,
  "ori": 7386,
  "oria": 8172,
  "orial": 5181,
  "orian": 37832,
  "oric": 16345,
  "orie": 17473,
  "orient": 19521,
  "oriented": 27414,
  "ories": 2083,
  "orig": 20632,
  "original": 29042,
  "origine": 49168,
  "oring": 3662,
  "orious": 14354,
  "oris": 46198,
  "orit": 50017,
  "orith": 6819,
  "ork": 1284,
  "orld": 3445,
  "orm": 687,
  "ormal": 24440,
  "orman": 46060,
  "ormuÅŁ": 46336,
  "orn": 1865,
  "orney": 10423,
  "orneys": 28487,
  "orno": 21998,
  "orns": 27128,
  "oro": 10780,
  "orous": 16099,
  "orp": 18703,
  "orph": 18191,
  "orr": 24362,
  "orro": 47385,
  "orrow": 3162,
  "orry": 2005,
  "ors": 830,
  "orsa": 38822,
  "orsch": 27457,
  "orse": 18699,
  "orship": 14752,
  "orsun": 8450,
  "ort": 477,
  "orta": 36403,
  "ortal": 18511,
  "orte": 12752,
  "orted": 14813,
  "orter": 6122,
  "orters": 12168,
  "ortex": 36143,
  "orth": 2652,
  "ortic": 48816,
  "ortion": 8136,
  "orton": 36184,
  "orts": 3299,
  "ortun": 1584,
  "ortunate": 17063,
  "ortunately": 4366,
  "ortune": 27172,
  "oru": 32963,
  "orum": 36543,
  "orus": 26867,
  "ory": 827,
  "os": 329,
  "osa": 6447,
  "osaic": 42261,
  "osas": 42393,
  "osaur": 18955,
  "osaurs": 23244,
  "osaurus": 49366,
  "osc": 10466,
  "oscope": 41659,
  "ose": 541,
  "osed": 1744,
  "osely": 24253,
  "osen": 6441,
  "oser": 22150,
  "oses": 4201,
  "osexual": 22255,
  "osh": 3019,
  "oshi": 17392,
  "oshima": 47989,
  "oshing": 27656,
  "oshop": 18000,
  "osi": 21521,
  "osing": 6110,
  "osion": 19996,
  "osis": 8211,
  "osit": 9598,
  "osition": 5830,
  "osity": 20373,
  "osium": 42161,
  "oso": 9869,
  "osos": 33894,
  "osp": 2763,
  "ospace": 35682,
  "ospel": 11190,
  "osph": 16378,
  "osphere": 44877,
  "ospheric": 25145,
  "oss": 772,
  "ossa": 9978,
  "osse": 14353,
  "ossen": 22573,
  "ossible": 5785,
  "ossing": 35652,
  "ossip": 27971,
  "ost": 555,
  "osta": 8638,
  "ostat": 39036,
  "osten": 18946,
  "oster": 7096,
  "osters": 40427,
  "ostic": 19634,
  "osto": 22756,
  "oston": 11966,
  "osure": 7641,
  "ot": 310,
  "ota": 5377,
  "otal": 38180,
  "otch": 32785,
  "ote": 1370,
  "otechn": 31843,
  "otechnology": 43594,
  "oted": 23325,
  "oten": 21990,
  "oter": 21585,
  "otes": 17251,
  "oth": 900,
  "othe": 24863,
  "other": 802,
  "otherap": 20194,
  "otherapy": 23208,
  "othermal": 47280,
  "others": 5750,
  "othes": 4624,
  "othing": 9107,
  "oths": 38265,
  "othy": 18907,
  "oti": 8206,
  "otiation": 26618,
  "otic": 9411,
  "otics": 42131,
  "otine": 39658,
  "oting": 17001,
  "otion": 19228,
  "otional": 41692,
  "otive": 22459,
  "otle": 30773,
  "oto": 6738,
  "otom": 42939,
  "oton": 27794,
  "otros": 11792,
  "ots": 1971,
  "ott": 1521,
  "otta": 22967,
  "otte": 13079,
  "otted": 11252,
  "otti": 37514,
  "ottle": 19659,
  "otto": 18838,
  "oty": 6737,
  "otype": 13108,
  "otypes": 19477,
  "otz": 18530,
  "otzdem": 23934,
  "ou": 263,
  "oubl": 46680,
  "ouble": 33147,
  "oubt": 26705,
  "oubtedly": 32135,
  "ouch": 2220,
  "ouched": 36740,
  "oud": 1861,
  "oue": 41785,
  "oufl": 36503,
  "oug": 513,
  "ough": 581,
  "ougher": 26955,
  "oughing": 25875,
  "oughs": 34445,
  "ought": 930,
  "oul": 3298,
  "ould": 429,
  "oulder": 28792,
  "oule": 26757,
  "oun": 1733,
  "ounce": 7826,
  "ounced": 37879,
  "ouncer": 14296,
  "ounces": 25540,
  "ound": 554,
  "ounded": 37706,
  "ounding": 24625,
  "ounds": 4432,
  "oung": 18755,
  "ounge": 27066,
  "ount": 792,
  "ountain": 22838,
  "ounter": 47489,
  "ounty": 33450,
  "oup": 1250,
  "oupe": 23266,
  "our": 396,
  "ourage": 44720,
  "ource": 2948,
  "ources": 2749,
  "ourcing": 41849,
  "ourd": 21764,
  "oure": 44283,
  "oured": 16439,
  "ouri": 20175,
  "ouring": 40510,
  "ours": 5067,
  "ourse": 13656,
  "ourt": 33403,
  "ous": 563,
  "ouse": 1316,
  "oused": 45478,
  "ouses": 18562,
  "ousing": 24220,
  "ously": 5098,
  "ousse": 28521,
  "oust": 15849,
  "out": 346,
  "oute": 14040,
  "outer": 23985,
  "outez": 48903,
  "outh": 2178,
  "outhe": 18159,
  "outheast": 20468,
  "outhern": 8409,
  "outine": 45075,
  "outing": 24500,
  "outs": 7711,
  "ouv": 22941,
  "ouve": 8162,
  "ouver": 19677,
  "ouvert": 43315,
  "oux": 30209,
  "ov": 5179,
  "ova": 27924,
  "ovan": 47936,
  "ove": 1682,
  "over": 3570,
  "overs": 25348,
  "ovich": 44844,
  "ovy": 38223,
  "ow": 305,
  "owa": 5528,
  "owad": 22647,
  "owan": 37345,
  "owana": 40458,
  "owane": 23066,
  "owania": 21308,
  "owanie": 22028,
  "owany": 23341,
  "owaÄĩ": 11445,
  "owaÅĤ": 30105,
  "owe": 6880,
  "owed": 24347,
  "oween": 13589,
  "owego": 26576,
  "owej": 21091,
  "ower": 968,
  "owers": 23054,
  "owi": 24503,
  "owie": 13998,
  "owing": 9637,
  "owitz": 22799,
  "owiÄħ": 47886,
  "owment": 47966,
  "own": 648,
  "owned": 14683,
  "owner": 34679,
  "owners": 28608,
  "ownik": 44895,
  "owo": 19941,
  "ows": 1509,
  "owser": 30947,
  "owski": 21866,
  "owy": 10089,
  "owych": 19605,
  "owym": 31691,
  "owÄħ": 30297,
  "ox": 5230,
  "oxide": 46053,
  "oy": 939,
  "oya": 24642,
  "oyo": 26251,
  "oys": 44131,
  "oyu": 45269,
  "oz": 15151,
  "oÅĽci": 44468,
  "p": 79,
  "pa": 4306,
  "pable": 30454,
  "pace": 17940,
  "paced": 47038,
  "pack": 9539,
  "pad": 13647,
  "page": 15161,
  "pai": 43502,
  "paid": 35035,
  "pak": 45944,
  "pal": 31862,
  "pan": 6040,
  "pannt": 36424,
  "pants": 46462,
  "panze": 48410,
  "paper": 22104,
  "par": 2181,
  "para": 48978,
  "parable": 42012,
  "paragus": 49537,
  "pared": 45573,
  "parent": 38321,
  "parents": 19901,
  "park": 31239,
  "part": 6971,
  "party": 23409,
  "pas": 20990,
  "pass": 9216,
  "passen": 44270,
  "pat": 11584,
  "path": 31852,
  "patient": 29752,
  "pause": 38831,
  "pay": 22038,
  "payer": 38443,
  "payers": 35087,
  "pciÃ³n": 39859,
  "pe": 494,
  "peace": 43099,
  "peare": 22446,
  "pecially": 2084,
  "pect": 1043,
  "pected": 10729,
  "pection": 19997,
  "ped": 3452,
  "pedo": 41933,
  "pee": 39544,
  "pees": 21778,
  "pei": 46238,
  "pek": 32659,
  "pekt": 23533,
  "pel": 20071,
  "pell": 49241,
  "pelled": 33000,
  "pen": 5200,
  "pend": 18608,
  "pent": 22786,
  "people": 21123,
  "per": 610,
  "pered": 40004,
  "perform": 26765,
  "performance": 50242,
  "pering": 20055,
  "pero": 49565,
  "peror": 11725,
  "pers": 21819,
  "person": 10813,
  "personal": 36649,
  "pert": 15346,
  "pes": 5190,
  "pet": 7275,
  "petto": 42801,
  "peut": 22282,
  "pex": 29420,
  "pez": 15144,
  "peÅĤ": 31457,
  "peÅĤnie": 48054,
  "pf": 25302,
  "pflicht": 45430,
  "pg": 49861,
  "ph": 950,
  "pha": 7211,
  "phabet": 20890,
  "phalt": 39910,
  "phant": 15071,
  "phants": 30173,
  "phas": 7485,
  "phase": 43331,
  "phem": 41245,
  "phen": 47059,
  "phere": 6605,
  "phet": 8999,
  "phin": 48522,
  "phis": 26153,
  "phon": 29285,
  "phone": 4977,
  "phones": 9142,
  "phonetic": 43226,
  "phony": 28616,
  "phoria": 50107,
  "phr": 44598,
  "phy": 15680,
  "pi": 22630,
  "piano": 39892,
  "pic": 37509,
  "pical": 34061,
  "picious": 47067,
  "pie": 9144,
  "piece": 15281,
  "pieces": 47488,
  "piej": 39699,
  "piel": 36037,
  "pielt": 43929,
  "pier": 45119,
  "pin": 17836,
  "pine": 40412,
  "ping": 3381,
  "pipe": 50042,
  "pir": 9501,
  "pis": 40516,
  "pit": 20144,
  "pl": 564,
  "pla": 29684,
  "place": 6742,
  "places": 34840,
  "plain": 34821,
  "plan": 16554,
  "plane": 36390,
  "plant": 13067,
  "plants": 42433,
  "plat": 39975,
  "plate": 37008,
  "platz": 34755,
  "play": 2858,
  "player": 19125,
  "playful": 41092,
  "playing": 32944,
  "plays": 45755,
  "ple": 781,
  "pleasant": 26498,
  "please": 40764,
  "pled": 15551,
  "plement": 43704,
  "pler": 22732,
  "ples": 2622,
  "pless": 20434,
  "plet": 14657,
  "plete": 17220,
  "plets": 31023,
  "plex": 18945,
  "plic": 4770,
  "plicity": 24428,
  "plin": 48102,
  "pling": 11970,
  "plings": 26921,
  "plo": 21132,
  "ploy": 2384,
  "ploys": 49522,
  "plus": 18954,
  "ply": 2724,
  "pm": 14395,
  "po": 2259,
  "pod": 43388,
  "point": 6053,
  "points": 20552,
  "poke": 48776,
  "pol": 12892,
  "pole": 48518,
  "polit": 27461,
  "politik": 46424,
  "pool": 17374,
  "poon": 11282,
  "poons": 17361,
  "pop": 13872,
  "popular": 42376,
  "poque": 34995,
  "por": 2816,
  "pora": 47076,
  "port": 2707,
  "porte": 44614,
  "porter": 37356,
  "ports": 17845,
  "pos": 30010,
  "pose": 43501,
  "position": 38078,
  "post": 23744,
  "pot": 17698,
  "pound": 44806,
  "pow": 14701,
  "power": 9513,
  "powered": 27178,
  "powers": 47953,
  "pox": 42871,
  "pp": 427,
  "ppa": 34827,
  "ppe": 19833,
  "pped": 3320,
  "ppen": 21278,
  "pper": 3717,
  "ppers": 15226,
  "pping": 3759,
  "ppings": 28968,
  "ppo": 27000,
  "pps": 49184,
  "ppt": 42562,
  "ppy": 7966,
  "pr": 1424,
  "pra": 43255,
  "pract": 42559,
  "pre": 3712,
  "pread": 22141,
  "prech": 22895,
  "prechen": 38951,
  "preh": 40128,
  "prem": 29403,
  "prend": 32725,
  "prene": 7844,
  "pres": 14508,
  "presa": 42492,
  "presented": 36589,
  "press": 11637,
  "pret": 6629,
  "pri": 36391,
  "print": 14030,
  "prints": 25788,
  "prise": 8900,
  "prised": 42093,
  "prises": 19547,
  "prising": 26203,
  "prisingly": 34408,
  "prit": 24047,
  "pro": 4318,
  "prob": 41990,
  "problem": 47419,
  "process": 41075,
  "prochen": 23902,
  "produ": 14314,
  "product": 33244,
  "production": 40827,
  "prof": 29175,
  "profit": 14583,
  "profits": 32480,
  "program": 32726,
  "prom": 28722,
  "proof": 15690,
  "prot": 33629,
  "prov": 49911,
  "prove": 46955,
  "prowad": 35019,
  "pruch": 45788,
  "prus": 49074,
  "prÃ©s": 34002,
  "prÃ¼": 48715,
  "ps": 1878,
  "pse": 17738,
  "psilon": 16592,
  "pson": 16962,
  "psy": 29182,
  "pt": 662,
  "pta": 47366,
  "pted": 25383,
  "ptic": 32307,
  "ption": 1695,
  "ptions": 9799,
  "pton": 21987,
  "pts": 39280,
  "pture": 35603,
  "pty": 39420,
  "pu": 34859,
  "punk": 27133,
  "punkt": 31744,
  "pur": 35801,
  "purpose": 42601,
  "pus": 31624,
  "put": 2582,
  "puter": 13849,
  "py": 8200,
  "q": 80,
  "qi": 26344,
  "qing": 40055,
  "qu": 358,
  "qua": 34787,
  "qual": 22345,
  "qualified": 46094,
  "quality": 11286,
  "quar": 16177,
  "quarter": 43363,
  "quarters": 17313,
  "que": 1077,
  "quel": 20593,
  "quela": 41462,
  "quele": 17012,
  "quelle": 32743,
  "quency": 48154,
  "quent": 28842,
  "quently": 47519,
  "quer": 8035,
  "ques": 7519,
  "quest": 20343,
  "quet": 19343,
  "quez": 39009,
  "qui": 18170,
  "quier": 16622,
  "quiera": 35134,
  "quila": 42232,
  "quin": 29360,
  "quinho": 27339,
  "quir": 45568,
  "quis": 15398,
  "quisite": 34152,
  "quito": 14856,
  "quoi": 14461,
  "quote": 25016,
  "quÃ¨": 14460,
  "quÃ©": 16412,
  "r": 81,
  "ra": 424,
  "rab": 5305,
  "rac": 12080,
  "raciÃ³n": 46205,
  "ract": 1897,
  "raction": 26766,
  "racy": 40932,
  "rad": 6206,
  "rada": 19120,
  "radas": 48906,
  "rade": 14748,
  "rades": 34668,
  "rado": 14974,
  "rados": 40491,
  "rael": 5416,
  "raf": 10437,
  "raft": 4469,
  "rag": 3731,
  "rage": 16223,
  "ragen": 20663,
  "ragon": 25997,
  "ragt": 32243,
  "rah": 15688,
  "raham": 15162,
  "rai": 34554,
  "raid": 4531,
  "rail": 44765,
  "rain": 7146,
  "raine": 11798,
  "rained": 31774,
  "rais": 20769,
  "rait": 8645,
  "raits": 29323,
  "raj": 48690,
  "rak": 11272,
  "rakt": 32249,
  "raktion": 39694,
  "ral": 2155,
  "rale": 47282,
  "rals": 34179,
  "ram": 2356,
  "rama": 29762,
  "ramatic": 13949,
  "ramble": 48382,
  "rament": 44764,
  "ramento": 34706,
  "ramer": 44772,
  "ramient": 37910,
  "ramos": 30227,
  "ran": 4257,
  "rance": 32493,
  "ranch": 49702,
  "rand": 3699,
  "rando": 19845,
  "rane": 21802,
  "ranean": 24584,
  "rang": 32926,
  "range": 14521,
  "rank": 20479,
  "rans": 25392,
  "rant": 7541,
  "rants": 10968,
  "rap": 4007,
  "raph": 2662,
  "rar": 5352,
  "rare": 35559,
  "ras": 3906,
  "rast": 4148,
  "raszam": 41378,
  "rat": 4481,
  "rate": 4404,
  "rated": 5468,
  "rategy": 37464,
  "rates": 12507,
  "ratic": 25198,
  "rating": 8754,
  "ration": 2405,
  "rations": 12154,
  "rative": 30457,
  "rato": 43037,
  "rator": 19802,
  "rators": 34886,
  "ratos": 35401,
  "rats": 25869,
  "ratulations": 9280,
  "rau": 48907,
  "rauen": 46640,
  "raul": 25074,
  "raum": 31502,
  "rav": 13404,
  "ravel": 33085,
  "raw": 5131,
  "rawd": 15889,
  "rawdÄĻ": 20098,
  "rawn": 29603,
  "ray": 3458,
  "rays": 36212,
  "raz": 30695,
  "raÃ§Ã£o": 37864,
  "rd": 7800,
  "re": 265,
  "rea": 12057,
  "reach": 16226,
  "read": 2538,
  "reading": 35908,
  "ready": 1201,
  "real": 9342,
  "really": 41613,
  "ream": 1572,
  "reaming": 38072,
  "reas": 37868,
  "reat": 620,
  "reated": 26559,
  "reath": 35976,
  "reating": 44613,
  "reb": 22692,
  "rebbe": 39487,
  "rec": 13867,
  "rece": 44209,
  "recht": 31495,
  "reci": 3326,
  "reck": 14954,
  "record": 38500,
  "rect": 2554,
  "rection": 11417,
  "red": 986,
  "redict": 24945,
  "redit": 20046,
  "ree": 701,
  "reek": 15500,
  "reen": 1492,
  "reens": 9098,
  "rees": 4856,
  "reet": 4751,
  "ref": 33115,
  "reg": 3375,
  "regation": 20167,
  "regierung": 25839,
  "regist": 48933,
  "regon": 18364,
  "regular": 26713,
  "reh": 9017,
  "rei": 10271,
  "reib": 38606,
  "reiben": 25946,
  "reibt": 31174,
  "reich": 12594,
  "reichen": 29119,
  "rek": 20012,
  "rel": 4419,
  "related": 12004,
  "relax": 50162,
  "rell": 19771,
  "rels": 40874,
  "rem": 2579,
  "reme": 5301,
  "rement": 37934,
  "remlin": 47154,
  "remo": 44172,
  "remos": 28343,
  "ren": 1095,
  "renal": 23658,
  "rence": 10760,
  "rences": 38983,
  "rench": 4442,
  "renched": 42388,
  "rencies": 25000,
  "rency": 10457,
  "rend": 4542,
  "render": 13292,
  "rendo": 46501,
  "rendre": 17218,
  "rene": 32252,
  "reno": 48207,
  "rent": 1753,
  "rente": 14772,
  "reon": 12751,
  "rep": 19919,
  "represented": 38293,
  "rer": 9797,
  "res": 495,
  "rese": 49838,
  "resent": 11662,
  "resh": 3644,
  "reshold": 14214,
  "resident": 44625,
  "reso": 38021,
  "resp": 5667,
  "respace": 45245,
  "respect": 19575,
  "respond": 6663,
  "respons": 28930,
  "ress": 735,
  "resse": 22603,
  "ressed": 3805,
  "resser": 37278,
  "resses": 40352,
  "ressing": 18605,
  "ression": 2775,
  "ressive": 22733,
  "resso": 29652,
  "rest": 4149,
  "restrial": 34539,
  "ret": 1505,
  "retch": 5427,
  "retched": 45928,
  "rete": 7600,
  "reten": 35383,
  "reto": 47330,
  "rets": 9675,
  "rett": 14313,
  "reu": 30844,
  "rev": 40382,
  "rew": 2236,
  "rey": 7950,
  "rez": 17693,
  "rh": 48759,
  "ri": 470,
  "ria": 4668,
  "riad": 45192,
  "riage": 6200,
  "riages": 30891,
  "rial": 7111,
  "rian": 5501,
  "rians": 28145,
  "rias": 35051,
  "rib": 2024,
  "rible": 4457,
  "ribly": 18409,
  "ribution": 30783,
  "ric": 1341,
  "rica": 15192,
  "rical": 15888,
  "ricane": 19282,
  "ricanes": 43524,
  "rice": 21299,
  "rices": 24373,
  "rich": 10794,
  "richt": 12836,
  "richten": 40825,
  "ricia": 28635,
  "rick": 9323,
  "rico": 23776,
  "rics": 10716,
  "rict": 3740,
  "ricting": 37714,
  "ricular": 42750,
  "rid": 8558,
  "ride": 25502,
  "ridge": 15804,
  "ridges": 43292,
  "rie": 5469,
  "rieb": 31775,
  "rieben": 24027,
  "ried": 2428,
  "riel": 16721,
  "rien": 27378,
  "riend": 4896,
  "riends": 11047,
  "rier": 7326,
  "riers": 10525,
  "ries": 2244,
  "riet": 20782,
  "rif": 22575,
  "rift": 35742,
  "rig": 7065,
  "right": 1938,
  "rij": 11105,
  "rijk": 36360,
  "rik": 14456,
  "rika": 21499,
  "rike": 40669,
  "ril": 24216,
  "rill": 37480,
  "rils": 48789,
  "rim": 5565,
  "riment": 30591,
  "rimin": 16796,
  "riminal": 46885,
  "rimination": 14663,
  "rin": 12629,
  "rina": 21374,
  "rine": 15140,
  "ring": 2937,
  "ringe": 38895,
  "rings": 25782,
  "rint": 19014,
  "rints": 47523,
  "rio": 6584,
  "rios": 37994,
  "rip": 8400,
  "rique": 22343,
  "rir": 10949,
  "rire": 38920,
  "rires": 47313,
  "ris": 5714,
  "rise": 18619,
  "rishna": 45643,
  "rising": 42125,
  "risk": 33263,
  "rison": 17029,
  "rist": 12940,
  "rit": 3210,
  "rite": 35002,
  "riters": 39335,
  "rites": 30931,
  "rition": 32938,
  "ritis": 24580,
  "rito": 17492,
  "ritos": 42887,
  "ritt": 18579,
  "rium": 13015,
  "riv": 29994,
  "rive": 8003,
  "river": 32416,
  "rix": 6579,
  "riz": 24959,
  "riÃ¨re": 22166,
  "riÃ³": 44802,
  "ro": 340,
  "road": 8417,
  "roads": 30342,
  "roat": 10495,
  "rob": 16614,
  "robe": 24489,
  "robi": 20027,
  "roc": 24174,
  "rock": 17799,
  "rocket": 37463,
  "rod": 11452,
  "rodu": 2323,
  "roe": 36177,
  "roffen": 30594,
  "rog": 6675,
  "rogen": 7747,
  "roid": 6490,
  "roit": 15772,
  "rok": 31621,
  "rol": 6623,
  "role": 29114,
  "roleum": 40615,
  "roll": 3970,
  "rolle": 45344,
  "rolled": 28850,
  "roller": 22922,
  "rolling": 18688,
  "rollo": 34609,
  "rolog": 20978,
  "rom": 4397,
  "romagn": 23746,
  "rome": 11505,
  "ron": 2044,
  "rone": 26446,
  "rones": 25562,
  "ronic": 10011,
  "ronics": 37042,
  "rons": 13270,
  "ront": 10001,
  "ronting": 45507,
  "room": 2861,
  "rooms": 32346,
  "root": 44147,
  "roots": 35729,
  "rop": 1513,
  "roph": 11741,
  "rophe": 27194,
  "rophy": 40826,
  "ropic": 39173,
  "ropol": 24832,
  "ropolis": 46470,
  "ropolitan": 28358,
  "roportion": 27910,
  "ropri": 5072,
  "rops": 49715,
  "ropy": 27514,
  "ror": 2874,
  "rors": 9734,
  "ros": 2635,
  "roscop": 38006,
  "rose": 37841,
  "rosoft": 7856,
  "rospect": 28713,
  "ross": 1887,
  "rost": 27494,
  "rot": 10536,
  "rou": 13122,
  "rough": 6160,
  "round": 5453,
  "rounded": 50167,
  "rounds": 43457,
  "rous": 21189,
  "rov": 24088,
  "rove": 32467,
  "row": 1892,
  "rowd": 11736,
  "rows": 28251,
  "roy": 4460,
  "royable": 45976,
  "roz": 27857,
  "rr": 16115,
  "rs": 22943,
  "rt": 17721,
  "ru": 894,
  "ruce": 41158,
  "ruck": 8161,
  "ruct": 1757,
  "ruction": 3826,
  "ructive": 21673,
  "ructor": 14535,
  "ructure": 2885,
  "ructured": 46847,
  "ructures": 44513,
  "rud": 47130,
  "rue": 41729,
  "ruff": 50154,
  "ruit": 18891,
  "ruk": 25126,
  "rukt": 19977,
  "ruktur": 31543,
  "rul": 35972,
  "rule": 44197,
  "rum": 6247,
  "run": 12997,
  "running": 45482,
  "rup": 11976,
  "rupt": 5428,
  "ruption": 11266,
  "rus": 13783,
  "rust": 22326,
  "rut": 24316,
  "ry": 627,
  "rying": 19076,
  "rylic": 24007,
  "ryn": 32532,
  "ryw": 47705,
  "rz": 19390,
  "rze": 13503,
  "rzy": 13047,
  "rÃ¡": 30218,
  "rÃ¡s": 17168,
  "rÃ£o": 36837,
  "rÃ¤": 11397,
  "rÃ¤ge": 40917,
  "rÃ¤n": 33766,
  "rÃ¥": 24972,
  "rÃ¥n": 43178,
  "rÃ¨s": 32524,
  "rÃ©": 10521,
  "rÃ©al": 50014,
  "rÃ©e": 37735,
  "rÃ©s": 18981,
  "rÃ³": 11721,
  "rÃ³d": 43678,
  "rÃ¼": 31759,
  "rÃł": 39212,
  "rÃŃ": 40577,
  "rÃŃa": 37183,
  "rÄħ": 32881,
  "s": 82,
  "sa": 5790,
  "sal": 15142,
  "sam": 19988,
  "sama": 37275,
  "san": 11491,
  "saw": 31287,
  "say": 21664,
  "sc": 4417,
  "sca": 44239,
  "scale": 20033,
  "sce": 22919,
  "scene": 47798,
  "scenes": 36324,
  "sch": 6145,
  "schaft": 37363,
  "sche": 12287,
  "scheid": 29811,
  "schein": 23672,
  "scheinlich": 25553,
  "school": 22779,
  "scream": 15693,
  "screaming": 23698,
  "screams": 29443,
  "screen": 12439,
  "se": 405,
  "sea": 17531,
  "season": 28862,
  "seat": 43152,
  "sec": 8159,
  "second": 27375,
  "sect": 9632,
  "section": 11963,
  "sections": 40329,
  "security": 31004,
  "sed": 45036,
  "see": 17109,
  "seen": 22008,
  "sehen": 27750,
  "sei": 43665,
  "sein": 33042,
  "seits": 44033,
  "sek": 26141,
  "sel": 790,
  "self": 927,
  "sell": 14555,
  "selling": 30427,
  "sels": 26604,
  "selves": 2036,
  "sem": 19872,
  "semb": 15750,
  "semble": 37227,
  "sembly": 19160,
  "sen": 6748,
  "sent": 49315,
  "seok": 47050,
  "sequ": 11834,
  "sequently": 46027,
  "ser": 12484,
  "service": 39279,
  "ses": 6196,
  "set": 3854,
  "seven": 44476,
  "sex": 28774,
  "sey": 7399,
  "sh": 2716,
  "shaped": 23103,
  "shaw": 49813,
  "she": 9611,
  "shelf": 46626,
  "shi": 46226,
  "shield": 35975,
  "shift": 47445,
  "shine": 19686,
  "ship": 5278,
  "shire": 22294,
  "shirt": 15313,
  "shirts": 25892,
  "shit": 19186,
  "sho": 31321,
  "shop": 29431,
  "shore": 27195,
  "shot": 18402,
  "shots": 35491,
  "show": 34436,
  "si": 7691,
  "side": 1812,
  "sided": 30941,
  "sigh": 35143,
  "sighs": 23074,
  "sight": 28654,
  "sil": 30605,
  "sim": 30937,
  "sin": 19767,
  "singing": 21568,
  "sings": 40755,
  "sis": 17122,
  "site": 30417,
  "six": 35066,
  "size": 27553,
  "sized": 20614,
  "sk": 5161,
  "ska": 20771,
  "ski": 18020,
  "skin": 45299,
  "sky": 25810,
  "sl": 10418,
  "slow": 32008,
  "sm": 10817,
  "smith": 39599,
  "sn": 18860,
  "sna": 28045,
  "so": 539,
  "soci": 3276,
  "social": 48600,
  "soever": 16663,
  "soft": 13908,
  "sol": 30926,
  "sold": 45537,
  "sole": 9481,
  "som": 24154,
  "some": 23189,
  "something": 31681,
  "son": 3015,
  "sonaro": 45733,
  "song": 38762,
  "soo": 27970,
  "soon": 34605,
  "sorry": 47545,
  "sound": 41834,
  "source": 41676,
  "sover": 23799,
  "sp": 4952,
  "space": 24824,
  "spe": 7053,
  "speaking": 14579,
  "speaks": 31016,
  "specific": 29258,
  "speed": 22746,
  "spl": 46535,
  "spr": 18193,
  "spring": 30757,
  "squ": 33292,
  "sque": 44516,
  "ss": 3810,
  "ssa": 39516,
  "ssen": 8718,
  "sst": 20407,
  "ssÃ¤": 18403,
  "st": 372,
  "sta": 9140,
  "stad": 48299,
  "stadt": 34511,
  "stag": 37077,
  "stage": 17882,
  "stairs": 10899,
  "stal": 9196,
  "stalk": 34805,
  "stan": 18758,
  "stanbul": 43928,
  "stand": 1115,
  "standen": 33946,
  "standing": 8618,
  "star": 9710,
  "stars": 46903,
  "start": 24419,
  "starter": 33969,
  "stat": 19435,
  "state": 15406,
  "static": 34632,
  "station": 19159,
  "staw": 22580,
  "ste": 2941,
  "sted": 30115,
  "stein": 9089,
  "stell": 17816,
  "stellen": 17538,
  "stellung": 30016,
  "stem": 1099,
  "sten": 6266,
  "step": 16792,
  "steps": 20413,
  "ster": 3120,
  "sterdam": 27608,
  "sterreich": 34111,
  "sters": 10130,
  "stes": 45355,
  "sti": 39505,
  "stick": 11881,
  "sticks": 22789,
  "still": 40306,
  "sto": 20875,
  "stock": 23914,
  "stoff": 23636,
  "ston": 8805,
  "stone": 11243,
  "stones": 38702,
  "stood": 6431,
  "stop": 13559,
  "stoppable": 43006,
  "store": 21624,
  "storm": 17367,
  "story": 24513,
  "str": 9733,
  "stra": 19639,
  "stre": 26421,
  "stream": 9291,
  "string": 37045,
  "strings": 50035,
  "stro": 27616,
  "stroke": 42706,
  "strom": 38673,
  "strong": 28063,
  "stru": 30615,
  "stud": 28349,
  "sty": 25134,
  "style": 15014,
  "stÃ¤": 24019,
  "stÃ¤nd": 16913,
  "stÃ¼t": 21836,
  "su": 15091,
  "sub": 30131,
  "such": 39974,
  "sud": 49800,
  "suite": 33136,
  "sun": 11314,
  "sung": 32052,
  "super": 48172,
  "supp": 36622,
  "sur": 36054,
  "susp": 31065,
  "suspenseful": 34743,
  "sw": 25884,
  "sweise": 36233,
  "sy": 3187,
  "sych": 4202,
  "system": 28215,
  "sz": 15453,
  "szy": 7706,
  "szych": 45021,
  "szyst": 10424,
  "sÃ¥": 19773,
  "sÄ±n": 22133,
  "sÄ±nÄ±z": 44814,
  "t": 83,
  "ta": 1328,
  "taa": 43695,
  "table": 23811,
  "tag": 25030,
  "tail": 14430,
  "tails": 39384,
  "tain": 15209,
  "tak": 49771,
  "take": 27612,
  "taking": 48625,
  "tal": 32831,
  "talk": 29302,
  "tam": 37323,
  "tan": 20356,
  "tant": 35717,
  "tar": 23480,
  "tat": 27321,
  "tawa": 36254,
  "taÄĩ": 42931,
  "taÅĤ": 46426,
  "te": 975,
  "tech": 25970,
  "techn": 29113,
  "ted": 14727,
  "teen": 9791,
  "teenth": 46897,
  "teil": 30766,
  "tek": 47611,
  "tem": 18275,
  "temps": 30537,
  "ten": 1147,
  "tense": 39595,
  "teok": 25352,
  "teokbokki": 34357,
  "ter": 391,
  "tera": 23833,
  "tered": 40665,
  "teri": 34345,
  "tering": 34200,
  "terior": 10872,
  "term": 7039,
  "termin": 29725,
  "tern": 2231,
  "ternal": 7481,
  "terror": 48024,
  "ters": 1559,
  "tery": 12733,
  "tes": 7269,
  "test": 31636,
  "text": 25111,
  "tez": 47616,
  "th": 392,
  "tha": 13571,
  "than": 24852,
  "thank": 40683,
  "that": 6780,
  "the": 3322,
  "theless": 16620,
  "them": 47959,
  "theme": 36965,
  "then": 19096,
  "ther": 616,
  "there": 15456,
  "thern": 8846,
  "thers": 2273,
  "these": 42678,
  "thest": 36356,
  "they": 13162,
  "thing": 825,
  "think": 21074,
  "thinking": 39873,
  "third": 25095,
  "thirds": 38507,
  "this": 11176,
  "thlet": 7120,
  "thm": 10194,
  "thms": 42945,
  "thon": 11943,
  "thood": 38283,
  "those": 49833,
  "though": 3222,
  "thought": 43135,
  "three": 27583,
  "thren": 40300,
  "throp": 14222,
  "through": 11529,
  "ths": 32184,
  "thur": 15915,
  "thy": 28433,
  "ti": 7317,
  "tic": 40907,
  "tier": 25402,
  "ties": 6097,
  "tight": 41738,
  "til": 20007,
  "till": 47189,
  "tim": 31208,
  "time": 3766,
  "timer": 38013,
  "tin": 23159,
  "ting": 783,
  "tir": 24000,
  "tit": 27689,
  "tle": 10972,
  "tles": 23995,
  "to": 1353,
  "tober": 44715,
  "toi": 49222,
  "toire": 47144,
  "ton": 1756,
  "tone": 41656,
  "tones": 46272,
  "too": 32599,
  "top": 19337,
  "tor": 21151,
  "town": 30401,
  "tr": 6903,
  "tra": 17227,
  "track": 19466,
  "trad": 43831,
  "trans": 24999,
  "tre": 3599,
  "trl": 28269,
  "tro": 38604,
  "ts": 1373,
  "tschaft": 22165,
  "tsÃ¥": 25441,
  "tt": 6319,
  "tte": 46739,
  "tu": 9179,
  "tuber": 34645,
  "tur": 24906,
  "turn": 33886,
  "tv": 24641,
  "tw": 20270,
  "two": 20534,
  "tx": 38773,
  "ty": 874,
  "tyard": 37041,
  "tycznie": 45586,
  "type": 20467,
  "tz": 23643,
  "tÃ³": 4547,
  "tÄ±": 28163,
  "tÄ±m": 41186,
  "tÄ±r": 20637,
  "u": 84,
  "ua": 4398,
  "uage": 20473,
  "uais": 35469,
  "ual": 901,
  "ually": 671,
  "uan": 6139,
  "uana": 20070,
  "uar": 20766,
  "uard": 16981,
  "uary": 6164,
  "uate": 10107,
  "uated": 27275,
  "uates": 27710,
  "uating": 32438,
  "uation": 16073,
  "uations": 37570,
  "ub": 836,
  "uba": 12584,
  "ubby": 35654,
  "ube": 1977,
  "uben": 34844,
  "uber": 10261,
  "ubernetes": 22457,
  "ubers": 19581,
  "ubine": 47866,
  "ubl": 32144,
  "ublic": 3865,
  "ublik": 48620,
  "ublique": 42105,
  "ubs": 5432,
  "ubscribe": 9493,
  "uc": 1311,
  "uca": 32072,
  "ucc": 39407,
  "uccess": 16461,
  "ucch": 32621,
  "ucci": 30670,
  "uce": 4176,
  "uced": 41209,
  "uch": 625,
  "ucha": 26042,
  "uchar": 31084,
  "uche": 17545,
  "uchen": 11285,
  "ucher": 41843,
  "uchi": 30026,
  "uchs": 37503,
  "ucht": 10084,
  "uci": 34144,
  "uciones": 46649,
  "uciÃ³n": 30813,
  "uck": 1134,
  "ucken": 49720,
  "ucker": 15032,
  "ucking": 33260,
  "uckland": 33717,
  "uckle": 32540,
  "uckles": 9193,
  "ucks": 15493,
  "uckt": 47800,
  "ucky": 10616,
  "uclear": 30335,
  "uct": 11130,
  "uction": 27549,
  "ud": 532,
  "uda": 11152,
  "udd": 26656,
  "udding": 49797,
  "ude": 2303,
  "uded": 23285,
  "uden": 32940,
  "udent": 24064,
  "uder": 28230,
  "udes": 10131,
  "udge": 16032,
  "udi": 26000,
  "udible": 5582,
  "uding": 33703,
  "udo": 6207,
  "udos": 35063,
  "uds": 32083,
  "ue": 622,
  "ued": 5827,
  "uego": 10443,
  "uel": 3483,
  "uela": 16079,
  "uell": 13789,
  "uelle": 23635,
  "uellement": 31816,
  "ueller": 33467,
  "uely": 48863,
  "uem": 50116,
  "uen": 7801,
  "uencia": 47377,
  "uent": 19226,
  "uep": 23547,
  "ueprint": 29017,
  "uer": 5486,
  "uerdo": 22412,
  "ues": 1247,
  "uesday": 9775,
  "uest": 11493,
  "uesta": 25316,
  "uestas": 47794,
  "uesto": 22057,
  "uestos": 42738,
  "uet": 15382,
  "uetooth": 17281,
  "uez": 31221,
  "uf": 2947,
  "ufact": 5563,
  "ufen": 19890,
  "uff": 1245,
  "uffed": 48553,
  "ufficient": 30664,
  "uffle": 21665,
  "uffled": 33974,
  "uffs": 28296,
  "uffy": 14297,
  "uft": 25005,
  "ug": 697,
  "uga": 19364,
  "ugal": 17812,
  "ugar": 8307,
  "uge": 7181,
  "ugen": 27915,
  "ugene": 33103,
  "uger": 44953,
  "uges": 39064,
  "ugg": 3562,
  "uggage": 27159,
  "uggle": 31726,
  "uggling": 29921,
  "ugh": 1984,
  "ughing": 2974,
  "ughs": 2585,
  "ught": 1599,
  "ughter": 2395,
  "ughters": 15906,
  "ugi": 24780,
  "ugo": 20746,
  "ugs": 14950,
  "ugu": 13705,
  "uguese": 21609,
  "uh": 3232,
  "uhan": 24729,
  "ui": 3077,
  "uin": 9445,
  "uine": 15516,
  "uinely": 17415,
  "uing": 9635,
  "uins": 44790,
  "uir": 34498,
  "uire": 43612,
  "uis": 8479,
  "uish": 33786,
  "uit": 1983,
  "uitar": 24917,
  "uite": 21681,
  "uiten": 42928,
  "uition": 19080,
  "uitive": 48314,
  "uito": 22703,
  "uits": 7688,
  "uity": 21757,
  "uiÃ§Ã£o": 40593,
  "uj": 4579,
  "ujah": 24679,
  "uje": 13008,
  "ujemy": 21767,
  "ujin": 37005,
  "ujourd": 32202,
  "uju": 45652,
  "ujÄħ": 13263,
  "ujÄħc": 44733,
  "ujÄĻ": 18258,
  "uk": 2034,
  "uka": 13599,
  "ukan": 22324,
  "uke": 15420,
  "uki": 11788,
  "uko": 39476,
  "uks": 27999,
  "ukt": 46315,
  "uku": 24164,
  "ul": 425,
  "ula": 3780,
  "ulan": 40701,
  "ular": 1040,
  "ulares": 47129,
  "ulars": 42891,
  "ulas": 16968,
  "ulate": 5256,
  "ulated": 6987,
  "ulates": 26192,
  "ulating": 12162,
  "ulation": 2776,
  "ulations": 4136,
  "ulative": 22678,
  "ulator": 16381,
  "ulators": 39265,
  "uld": 13432,
  "uldade": 48504,
  "ule": 2271,
  "uled": 45893,
  "ulen": 35671,
  "ulent": 23405,
  "uler": 26318,
  "ules": 3473,
  "ulf": 5757,
  "uli": 25484,
  "ulif": 38365,
  "uliflower": 39876,
  "ulin": 17701,
  "ulk": 16875,
  "ull": 858,
  "ulla": 26891,
  "ullah": 29605,
  "ulle": 34217,
  "ullen": 32516,
  "ullie": 27206,
  "ully": 2150,
  "ulo": 13455,
  "ulos": 28348,
  "ulous": 6893,
  "ulously": 25038,
  "ulp": 39646,
  "ulpt": 12463,
  "uls": 9468,
  "ulse": 19258,
  "ulsion": 22973,
  "ulsive": 32657,
  "ult": 723,
  "ultan": 19911,
  "ults": 33361,
  "ultur": 26099,
  "ultura": 49944,
  "ultural": 11056,
  "ulture": 8389,
  "ulty": 5773,
  "ulu": 12845,
  "ulum": 11560,
  "ulus": 26107,
  "uly": 3540,
  "um": 449,
  "uma": 5544,
  "uman": 6829,
  "umb": 2860,
  "umba": 49353,
  "umbai": 33376,
  "umber": 4182,
  "umbers": 36353,
  "umbing": 34236,
  "umble": 16473,
  "umbled": 19928,
  "umbles": 12255,
  "umbling": 14188,
  "umbs": 7808,
  "ume": 2540,
  "umed": 28189,
  "umen": 16988,
  "ument": 2206,
  "umental": 43311,
  "uments": 4697,
  "umer": 15583,
  "umes": 10018,
  "umi": 17800,
  "umin": 7112,
  "uming": 24919,
  "umm": 40879,
  "ummer": 30906,
  "ummy": 8620,
  "umn": 16449,
  "umo": 40904,
  "ump": 1420,
  "umph": 24963,
  "umping": 35313,
  "umps": 16951,
  "umpy": 36142,
  "ums": 8099,
  "umsy": 41965,
  "umu": 30034,
  "umuz": 34884,
  "un": 409,
  "una": 5051,
  "unal": 33304,
  "unch": 1680,
  "unching": 46079,
  "unci": 11228,
  "unciation": 17477,
  "unction": 32627,
  "und": 997,
  "unda": 11946,
  "undai": 43014,
  "unde": 13271,
  "unden": 10028,
  "under": 6617,
  "undert": 34267,
  "undo": 6043,
  "undos": 36518,
  "undred": 3159,
  "undy": 49996,
  "une": 2613,
  "uned": 43703,
  "unes": 15001,
  "unft": 19333,
  "ung": 1063,
  "unge": 27588,
  "ungen": 5084,
  "ungkin": 26105,
  "ungs": 5846,
  "uni": 24307,
  "uning": 37726,
  "unintelligible": 31460,
  "union": 42137,
  "unity": 45105,
  "univers": 41421,
  "unk": 3197,
  "unken": 39071,
  "unks": 17627,
  "unkt": 14797,
  "unku": 49910,
  "unky": 25837,
  "unn": 34963,
  "unning": 25589,
  "uno": 12638,
  "uns": 26684,
  "unt": 2760,
  "unta": 46380,
  "unte": 7070,
  "unted": 19015,
  "unter": 21777,
  "unting": 14559,
  "unto": 24052,
  "unts": 21253,
  "untu": 45605,
  "unu": 11072,
  "unun": 38411,
  "unuz": 33923,
  "unya": 27521,
  "unÃ¤chst": 42121,
  "uo": 18655,
  "uous": 12549,
  "up": 1010,
  "upa": 25686,
  "upbeat": 4870,
  "uper": 12879,
  "upid": 6127,
  "upl": 44810,
  "upp": 10504,
  "ups": 7528,
  "upun": 34572,
  "ur": 374,
  "ura": 2991,
  "urable": 25863,
  "urai": 27012,
  "ural": 1807,
  "urally": 6512,
  "uran": 12125,
  "urance": 5683,
  "uranÃ§a": 44214,
  "urar": 28586,
  "uras": 12907,
  "urat": 44108,
  "urate": 33144,
  "uration": 8167,
  "urb": 16659,
  "urch": 2476,
  "urd": 10752,
  "urday": 8486,
  "ure": 540,
  "ureau": 15235,
  "ured": 3831,
  "uren": 9873,
  "urer": 9858,
  "urers": 14198,
  "ures": 1303,
  "urez": 46790,
  "urf": 21844,
  "urg": 5476,
  "urgence": 44607,
  "urger": 26880,
  "urgical": 46736,
  "uri": 9744,
  "uria": 37299,
  "uries": 8318,
  "uring": 1345,
  "urious": 24274,
  "urities": 21973,
  "urity": 3051,
  "urm": 26717,
  "urn": 925,
  "urning": 10656,
  "uro": 7052,
  "uros": 8977,
  "urous": 37867,
  "urp": 20130,
  "urpose": 31345,
  "urrection": 38451,
  "urry": 30614,
  "urs": 2156,
  "ursday": 10125,
  "ursed": 47267,
  "urst": 48273,
  "urt": 6224,
  "uru": 8739,
  "urun": 36207,
  "ury": 2598,
  "us": 301,
  "usa": 20318,
  "usal": 11765,
  "usalem": 14992,
  "usan": 39634,
  "usc": 32601,
  "usch": 41172,
  "use": 438,
  "used": 4717,
  "usement": 21359,
  "user": 18088,
  "uses": 8355,
  "useum": 5816,
  "ush": 1498,
  "ushi": 16880,
  "ushima": 49754,
  "ushing": 5371,
  "usi": 33016,
  "usic": 4990,
  "using": 7981,
  "usion": 5704,
  "usions": 27255,
  "usive": 23053,
  "uso": 24431,
  "usp": 22490,
  "uss": 2023,
  "ussa": 45380,
  "ussen": 29202,
  "ussia": 39942,
  "ussian": 21948,
  "usst": 26340,
  "ussy": 26394,
  "ust": 381,
  "usta": 28652,
  "ustain": 27219,
  "uste": 41389,
  "usted": 6589,
  "uster": 8393,
  "ustered": 38624,
  "ustering": 48673,
  "usters": 17181,
  "usting": 11712,
  "usto": 48260,
  "ustom": 2239,
  "ustomed": 34977,
  "usu": 41083,
  "usz": 22378,
  "ut": 325,
  "uta": 12093,
  "utable": 32148,
  "utan": 30624,
  "utar": 32142,
  "utation": 11380,
  "utch": 9349,
  "utches": 49307,
  "ute": 1169,
  "uted": 4866,
  "uten": 7886,
  "utenant": 21698,
  "uter": 20314,
  "uters": 48396,
  "utes": 1819,
  "utet": 20364,
  "uteur": 42312,
  "uth": 2910,
  "uther": 17696,
  "uti": 29161,
  "uties": 17899,
  "util": 20835,
  "uting": 10861,
  "ution": 1448,
  "utions": 3666,
  "utive": 17254,
  "utlich": 21678,
  "uto": 8262,
  "utor": 22163,
  "utors": 30751,
  "utos": 34640,
  "utral": 43574,
  "uts": 3648,
  "utt": 13478,
  "utta": 27145,
  "utter": 9947,
  "uttering": 32224,
  "utto": 28698,
  "uty": 6432,
  "utz": 12950,
  "uu": 9750,
  "uum": 12823,
  "uur": 18470,
  "uuuu": 43779,
  "uv": 9350,
  "uve": 31564,
  "uvo": 43744,
  "uvre": 34171,
  "uw": 36824,
  "ux": 2449,
  "uxe": 43344,
  "uy": 7493,
  "uya": 37199,
  "uyor": 13649,
  "uyorsun": 40419,
  "uyorum": 41277,
  "uyu": 42694,
  "uz": 3334,
  "uzu": 48323,
  "uzz": 16740,
  "uzzy": 30601,
  "uÃ§": 42688,
  "uÃ§Ã£o": 36770,
  "uÃ©": 42423,
  "uÃ©s": 12430,
  "uÃŁ": 43796,
  "uÃŁen": 41560,
  "uÄŁ": 22135,
  "uÅŁ": 7913,
  "v": 85,
  "va": 2757,
  "vable": 17915,
  "vacc": 48976,
  "vad": 29886,
  "vag": 42586,
  "vais": 42984,
  "vak": 43506,
  "val": 3337,
  "vale": 46583,
  "vals": 19778,
  "valuation": 46504,
  "value": 29155,
  "values": 46033,
  "van": 9768,
  "vana": 39259,
  "vania": 47542,
  "vant": 5219,
  "vantage": 23408,
  "var": 8517,
  "vard": 11303,
  "vari": 34033,
  "vas": 7967,
  "vasive": 39211,
  "vat": 23352,
  "vate": 19083,
  "vation": 11116,
  "ve": 303,
  "veck": 33676,
  "ved": 937,
  "veda": 45716,
  "veer": 49143,
  "veis": 22479,
  "vel": 779,
  "veland": 27028,
  "vell": 48592,
  "velmente": 39786,
  "velop": 1388,
  "velope": 19278,
  "velt": 27196,
  "vem": 31651,
  "ven": 553,
  "venant": 20521,
  "venes": 41541,
  "venge": 46112,
  "venidos": 40668,
  "venir": 21955,
  "vens": 33302,
  "vent": 2475,
  "venth": 37439,
  "vention": 6411,
  "ventional": 46105,
  "ventions": 15051,
  "venue": 29307,
  "ver": 331,
  "verage": 3623,
  "verb": 25809,
  "verbs": 43348,
  "vere": 5887,
  "vern": 1659,
  "vero": 39332,
  "vers": 840,
  "verse": 4308,
  "version": 29153,
  "verstÃ¤nd": 36068,
  "vert": 3281,
  "verted": 18537,
  "verts": 36999,
  "verty": 10771,
  "very": 448,
  "ves": 977,
  "vest": 5571,
  "vet": 9771,
  "vette": 41440,
  "vey": 5603,
  "veyard": 38202,
  "vez": 10941,
  "vi": 4917,
  "via": 11617,
  "vial": 22640,
  "viamente": 23347,
  "vic": 25537,
  "vid": 6833,
  "vida": 32500,
  "videmment": 22639,
  "video": 40876,
  "vidia": 43021,
  "vie": 12702,
  "viet": 10878,
  "view": 1759,
  "viewer": 13457,
  "vik": 42252,
  "vil": 20202,
  "ville": 8386,
  "vin": 4796,
  "vine": 41243,
  "ving": 798,
  "vio": 28226,
  "viol": 23566,
  "violent": 48473,
  "vious": 1502,
  "viously": 2110,
  "vir": 46551,
  "viron": 16234,
  "vis": 4938,
  "vised": 24420,
  "visible": 48990,
  "vision": 6763,
  "visor": 16457,
  "vit": 10398,
  "vity": 23110,
  "viv": 27810,
  "vl": 42977,
  "vo": 3080,
  "voc": 20836,
  "vocal": 42809,
  "voice": 42268,
  "voir": 8823,
  "vol": 9646,
  "voll": 20654,
  "volt": 47610,
  "voor": 26188,
  "voorbeeld": 39006,
  "vor": 8453,
  "vordan": 48658,
  "vos": 19140,
  "vous": 16514,
  "voy": 35176,
  "vre": 34869,
  "vs": 36959,
  "vt": 49297,
  "vu": 32257,
  "vy": 11869,
  "vÃ¤": 17165,
  "vÃ¤nd": 30499,
  "vÃ¤r": 48631,
  "vÃ©": 15797,
  "w": 86,
  "wa": 4151,
  "wach": 50038,
  "wagen": 28717,
  "wah": 37360,
  "wait": 26040,
  "wal": 29530,
  "wald": 33262,
  "wali": 40054,
  "walk": 12490,
  "walker": 38980,
  "wall": 16256,
  "wan": 7916,
  "wand": 33114,
  "wang": 19031,
  "war": 6925,
  "ward": 1007,
  "wards": 2015,
  "ware": 3039,
  "warm": 49240,
  "warming": 48076,
  "wart": 29587,
  "warts": 43134,
  "warz": 31991,
  "was": 6569,
  "wash": 38558,
  "wasser": 48309,
  "wat": 44824,
  "watch": 15219,
  "water": 8002,
  "waukee": 34243,
  "wave": 35461,
  "way": 676,
  "ways": 942,
  "waÄĩ": 25234,
  "waÅ¼": 27111,
  "waÅĤ": 44603,
  "wd": 43778,
  "we": 826,
  "wealth": 29988,
  "wear": 15087,
  "wechsel": 26934,
  "wed": 26896,
  "weder": 49070,
  "weed": 21272,
  "week": 23188,
  "ween": 1259,
  "weet": 10354,
  "weg": 12517,
  "wegen": 13683,
  "wegs": 32793,
  "weh": 40630,
  "wehr": 35601,
  "wei": 17849,
  "weight": 12329,
  "weile": 35076,
  "weis": 35033,
  "weise": 13109,
  "weisen": 40196,
  "weit": 28019,
  "wel": 45512,
  "well": 6326,
  "welling": 34034,
  "welt": 33458,
  "wen": 15615,
  "wend": 20128,
  "went": 34798,
  "wer": 1554,
  "werk": 26833,
  "wers": 5364,
  "wert": 26521,
  "west": 8750,
  "wh": 1363,
  "what": 5479,
  "whe": 17098,
  "wheel": 22830,
  "whel": 8746,
  "when": 18822,
  "where": 1992,
  "which": 13690,
  "while": 7723,
  "whistle": 46435,
  "white": 28865,
  "who": 13506,
  "why": 22628,
  "wi": 6253,
  "wiad": 32997,
  "wic": 22295,
  "wich": 9669,
  "wick": 16038,
  "wid": 17697,
  "wide": 7990,
  "width": 21271,
  "wie": 8699,
  "wiek": 44674,
  "wier": 40717,
  "wiet": 39083,
  "wife": 32779,
  "wig": 33313,
  "wij": 36652,
  "will": 17044,
  "win": 9136,
  "wind": 12199,
  "wing": 7904,
  "winning": 32960,
  "wir": 43327,
  "wire": 42689,
  "wirtschaft": 38877,
  "wise": 3711,
  "with": 11820,
  "wives": 48882,
  "wiÄħ": 18234,
  "wiÄħz": 22620,
  "wiÄĻ": 22423,
  "wiÅĽcie": 15979,
  "wl": 39192,
  "wn": 895,
  "wnie": 14215,
  "wnieÅ¼": 19969,
  "wno": 20944,
  "wny": 43682,
  "wo": 6120,
  "wohl": 33849,
  "wol": 48481,
  "wolf": 34763,
  "woman": 18339,
  "won": 14693,
  "woo": 17607,
  "wood": 6092,
  "wor": 28321,
  "word": 7462,
  "words": 13832,
  "work": 1902,
  "worker": 49402,
  "workers": 37101,
  "working": 22475,
  "works": 18357,
  "world": 13217,
  "worm": 30917,
  "wort": 13802,
  "worth": 13136,
  "worthy": 23727,
  "would": 43815,
  "wow": 34354,
  "woÅĽci": 36476,
  "woÅĽÄĩ": 48847,
  "wr": 7449,
  "wright": 37752,
  "write": 21561,
  "writer": 23681,
  "writing": 19868,
  "written": 26859,
  "ws": 14358,
  "wszy": 30012,
  "wu": 30627,
  "wurf": 31515,
  "ww": 4979,
  "www": 17919,
  "wwww": 31234,
  "wy": 9726,
  "wydd": 49671,
  "wyn": 28284,
  "x": 87,
  "xa": 36852,
  "xe": 36949,
  "xes": 47047,
  "xi": 27579,
  "xic": 47228,
  "xico": 24829,
  "xide": 34454,
  "xim": 3081,
  "xis": 39637,
  "xit": 22037,
  "xo": 49050,
  "xt": 734,
  "xter": 36671,
  "xton": 44798,
  "xture": 8890,
  "xtures": 37610,
  "xual": 13418,
  "xus": 32618,
  "xx": 30569,
  "xy": 12876,
  "y": 88,
  "ya": 3016,
  "yah": 42534,
  "yal": 7265,
  "yan": 6277,
  "yang": 23594,
  "yani": 49812,
  "yard": 13862,
  "yards": 48905,
  "yas": 39472,
  "yba": 28375,
  "ych": 16384,
  "ycz": 17466,
  "yd": 6655,
  "ydd": 34871,
  "ydi": 49484,
  "ydia": 37622,
  "ye": 1200,
  "yeah": 19650,
  "year": 5294,
  "years": 34569,
  "yect": 22680,
  "yelling": 42983,
  "yen": 16580,
  "yeon": 13842,
  "yeong": 18122,
  "yer": 7224,
  "yers": 13917,
  "yes": 2346,
  "yet": 37180,
  "yez": 45577,
  "yg": 18103,
  "ygen": 8647,
  "ygusal": 47668,
  "yi": 8461,
  "yim": 17998,
  "yin": 30354,
  "ying": 1840,
  "yk": 46127,
  "yl": 5088,
  "ylan": 24691,
  "yle": 2072,
  "ylene": 46830,
  "ylie": 34579,
  "yll": 34353,
  "ylon": 34926,
  "ylum": 27512,
  "ym": 4199,
  "ymm": 32497,
  "ymph": 25161,
  "ympt": 34029,
  "yn": 2534,
  "ynam": 5216,
  "ynasty": 22181,
  "ync": 34015,
  "ynchron": 36420,
  "ynen": 48318,
  "ynn": 48959,
  "ynth": 18656,
  "ynthesis": 45601,
  "ynthia": 35933,
  "ynÄ±": 25681,
  "yo": 8308,
  "yon": 20808,
  "yond": 4063,
  "yor": 2454,
  "yorsun": 21338,
  "yorum": 5826,
  "you": 5616,
  "young": 29696,
  "your": 23093,
  "yr": 6016,
  "yrics": 11381,
  "ys": 749,
  "yscy": 38966,
  "yse": 36843,
  "ysical": 36280,
  "ysics": 41732,
  "ysis": 4642,
  "yson": 28194,
  "yss": 31059,
  "yst": 38593,
  "ystem": 9321,
  "ysz": 20589,
  "ysÅĤ": 39508,
  "yt": 4328,
  "ytes": 43673,
  "ytic": 43658,
  "ytt": 29475,
  "yty": 41944,
  "yu": 17623,
  "yun": 21505,
  "yw": 27112,
  "yy": 15630,
  "yz": 37433,
  "z": 89,
  "za": 2394,
  "zag": 43886,
  "zahl": 39670,
  "zam": 28915,
  "zan": 21238,
  "zar": 26236,
  "zas": 24561,
  "zaÄĩ": 35873,
  "zcz": 43771,
  "zd": 31278,
  "ze": 1381,
  "zech": 19439,
  "zed": 11312,
  "zego": 27725,
  "zeich": 32338,
  "zeigt": 39869,
  "zeit": 13712,
  "zeitig": 32075,
  "zej": 16920,
  "zek": 19878,
  "zel": 12971,
  "zelf": 34686,
  "zem": 24313,
  "zen": 2904,
  "zeni": 42124,
  "zenia": 14320,
  "zenie": 16778,
  "zeniu": 39651,
  "zens": 16515,
  "zent": 14185,
  "zep": 46342,
  "zept": 32082,
  "zer": 4527,
  "zero": 32226,
  "zers": 41698,
  "zes": 12214,
  "zess": 37575,
  "zet": 40399,
  "zeug": 19303,
  "zew": 43551,
  "zeÅĦ": 49689,
  "zh": 41032,
  "zhou": 37874,
  "zi": 3992,
  "zia": 40395,
  "zial": 17787,
  "ziaÅĤ": 43070,
  "zie": 3283,
  "zieh": 28213,
  "ziehen": 28768,
  "ziej": 19554,
  "ziel": 42280,
  "zier": 33352,
  "ziest": 37567,
  "zieÄĩ": 21214,
  "zig": 36168,
  "zil": 8790,
  "zilla": 26403,
  "zin": 23584,
  "zing": 8781,
  "zinho": 31282,
  "zione": 19706,
  "zip": 27268,
  "ziÄĩ": 28496,
  "ziÄĻ": 16706,
  "ziÄĻk": 25446,
  "ziÄĻki": 34546,
  "ziÄĻkujÄĻ": 29769,
  "zk": 30154,
  "zlich": 16813,
  "zn": 22672,
  "zna": 35458,
  "zne": 43077,
  "zo": 4765,
  "zogen": 42120,
  "zon": 35296,
  "zona": 13383,
  "zone": 16896,
  "zony": 44479,
  "zos": 27681,
  "zt": 2682,
  "zte": 45127,
  "zu": 11728,
  "zub": 40566,
  "zuf": 39467,
  "zug": 29742,
  "zuge": 46285,
  "zuk": 43994,
  "zung": 27667,
  "zur": 50210,
  "zus": 16236,
  "zusagen": 32868,
  "zust": 37677,
  "zw": 14406,
  "zwischen": 47115,
  "zy": 1229,
  "zych": 28051,
  "zyka": 40940,
  "zym": 26681,
  "zyst": 36049,
  "zysta": 49590,
  "zyÄĩ": 27150,
  "zz": 4313,
  "zza": 26786,
  "zzarella": 38808,
  "zzle": 9260,
  "zzo": 35130,
  "zÃ¤h": 23242,
  "zÄħ": 8925,
  "zÄħd": 23876,
  "zÄĻ": 11052,
  "{": 90,
  "{\\": 35000,
  "|": 91,
  "}": 92,
  "}}": 29464,
  "~": 93,
  "~!": 11394,
  "~!!": 45361,
  "~\"": 47014,
  "~)": 25010,
  "~?": 26931,
  "~]": 27456,
  "~~": 5990,
  "~~~": 20409,
  "~~~~": 29026,
  "¡": 94,
  "¡°": 6010,
  "¡Ģ": 42229,
  "¡Į": 5475,
  "¡ľ": 1955,
  "¡Ŀ": 11737,
  "¡ł": 19332,
  "¡Ń": 42087,
  "¢": 95,
  "¢ÙĨ": 48506,
  "£": 96,
  "£¨": 13033,
  "£¨ë": 29693,
  "£¼": 11372,
  "£¼ë": 47412,
  "£Į": 21305,
  "£ł": 24037,
  "¤": 97,
  "¤ë": 2990,
  "¤ë¡ľ": 38214,
  "¤ë¥¼": 38309,
  "¤í": 4644,
  "¤íĬ¸": 41914,
  "¤íĶ": 35219,
  "¥": 98,
  "¥´": 9956,
  "¥´ê²Į": 39930,
  "¥´ê³ł": 39949,
  "¥´ë": 22702,
  "¥´ë©´": 43486,
  "¥´ëĬĶ": 39402,
  "¥´ì": 41390,
  "¥¸": 10798,
  "¥¼": 2429,
  "¥ĺ": 46014,
  "¦": 99,
  "¦¬": 2250,
  "¦¬ê°Ģ": 27116,
  "¦¬ê²łìĬµëĭĪëĭ¤": 46560,
  "¦¬ê³ł": 7290,
  "¦¬ë": 7134,
  "¦¬ë¥¼": 18167,
  "¦¬ë©´": 40093,
  "¦¬ëĬĶ": 20896,
  "¦°": 12811,
  "¦´": 15389,
  "¦¼": 15773,
  "¦½": 18306,
  "¦½ëĭĪëĭ¤": 34328,
  "¦¿": 44293,
  "¦Ħ": 13488,
  "¦Ń": 32903,
  "§": 100,
  "§a": 11898,
  "§¤": 28728,
  "§Ģ": 11061,
  "§Ģë": 28719,
  "§ģ": 25787,
  "§Ħ": 30216,
  "§Ī": 8667,
  "§Īë": 44636,
  "§Īëĭ¤": 45408,
  "§ī": 47422,
  "§Į": 6478,
  "§Ĳ": 39122,
  "§Ŀ": 15407,
  "¨": 101,
  "¨¸": 17817,
  "¨¸ëĭĪ": 46355,
  "¨¹": 26741,
  "¨¼": 48150,
  "¨ë": 3891,
  "¨ë¦¬": 19407,
  "©": 102,
  "©ng": 21077,
  "©°": 18095,
  "©´": 2708,
  "©´ì": 41735,
  "©´ìĦľ": 9332,
  "©ëĭĪëĭ¤": 6665,
  "©Ķë": 29698,
  "ª": 103,
  "ª¨": 16838,
  "ª¨ë": 40025,
  "ª©": 27523,
  "ª»": 33411,
  "ª½": 9397,
  "ªħ": 8792,
  "«": 104,
  "¬": 105,
  "¬´": 18129,
  "¬´ë": 21046,
  "¬¸": 8357,
  "¬¼": 11825,
  "¬ë": 1698,
  "¬ë¥¼": 43773,
  "¬ìĺģ": 26157,
  "®": 106,
  "¯": 107,
  "¯¤": 46652,
  "¯¸": 6587,
  "¯¸ë": 35605,
  "¯¼": 9609,
  "¯¼ë": 41267,
  "°": 108,
  "°¥": 45582,
  "°©": 17027,
  "°°": 30141,
  "°±": 36922,
  "°ë": 2004,
  "°ë¥¼": 38220,
  "°ë¦¬": 7078,
  "°ëį°": 14494,
  "°ëıĦ": 41931,
  "°Į": 28627,
  "°Ķ": 27344,
  "°ķ": 21697,
  "°ĸìĹĲ": 46902,
  "°ĺ": 22196,
  "°ľ": 17248,
  "±": 109,
  "±°": 2442,
  "²": 110,
  "²½": 36547,
  "²Ħ": 17910,
  "²Ħë": 24410,
  "²Ī": 5166,
  "²Ķ": 38700,
  "²ķ": 30610,
  "³": 111,
  "³´": 7062,
  "³´ê²łìĬµëĭĪëĭ¤": 44246,
  "³´ê³ł": 34400,
  "³´ë": 17420,
  "³´ë©´": 47601,
  "³´ëĭ¤": 27655,
  "³´ëıĦë¡Ŀ": 46799,
  "³´ì": 20107,
  "³´ìĦ¸ìļĶ": 47326,
  "³´ìŀĲ": 47952,
  "³µ": 32635,
  "³¸": 18588,
  "³¼": 17194,
  "³¼ê²ĮìļĶ": 30060,
  "³Ð¾": 1444,
  "³Ģ": 43858,
  "³ĳ": 44504,
  "´": 112,
  "´¤": 23560,
  "´ë": 1327,
  "´ë¥¼": 35101,
  "´ëį°": 16775,
  "´ëıĦ": 48157,
  "´ëıĻ": 30580,
  "´ì": 1041,
  "´ì§Ģ": 24289,
  "´ìĦľ": 4555,
  "´ìĭ": 17058,
  "´ìĭ¬": 28569,
  "´ìĭ¬íŀĪ": 30879,
  "´ìĭľ": 46312,
  "´ìĹĲ": 19086,
  "´ìĹĲìĦľ": 42659,
  "´ìĺ": 42978,
  "´ìŀ": 28364,
  "´ìŀ¥": 47992,
  "´ìł": 23140,
  "´ìłģ": 38430,
  "´ìłĦ": 47595,
  "´ī": 44753,
  "´Ĳ": 16808,
  "µ": 113,
  "µì»¤": 19728,
  "¶": 114,
  "¶Ģ": 6301,
  "¶Ģë": 17981,
  "¶Ģë¶Ħ": 49288,
  "¶ĢíĦ°": 12130,
  "¶ģ": 18879,
  "¶Ħ": 6072,
  "¶Ħë": 31480,
  "¶Ħëĵ¤": 18912,
  "¶Ħëĵ¤ìĿ´": 40389,
  "¶Ī": 20026,
  "¶Į": 20353,
  "·": 115,
  "·¨": 24435,
  "·°": 33067,
  "¸": 116,
  "¸ë": 1397,
  "¸ë¡ľ": 16270,
  "¸ë¦¬": 14981,
  "¸Į": 21934,
  "¸Įë": 44787,
  "¸Ķ": 48411,
  "¹": 117,
  "¹Ħ": 9790,
  "¹Ħë": 49116,
  "¹ł": 19211,
  "º": 118,
  "»": 119,
  "»Ĳ": 37191,
  "¼": 120,
  "¼ë": 1870,
  "¼ë¡ľ": 33628,
  "½": 121,
  "¾": 122,
  "¿": 123,
  "À": 124,
  "Á": 125,
  "Â": 126,
  "Â¡": 24364,
  "Â«": 36784,
  "Â®": 35333,
  "Â°": 11782,
  "Â²": 27643,
  "Â´": 6945,
  "Â·": 14259,
  "Â·Â·": 44409,
  "Âº": 27244,
  "Â»": 5933,
  "Â»,": 21606,
  "Â».": 12513,
  "Â¿": 25073,
  "ÂŃ": 47781,
  "Ã": 127,
  "Ã¡": 842,
  "Ã¡b": 27879,
  "Ã¡c": 21563,
  "Ã¡ch": 39569,
  "Ã¡d": 32512,
  "Ã¡fic": 23858,
  "Ã¡g": 21099,
  "Ã¡gina": 36493,
  "Ã¡i": 28249,
  "Ã¡is": 32133,
  "Ã¡k": 37165,
  "Ã¡l": 11447,
  "Ã¡m": 19524,
  "Ã¡n": 7200,
  "Ã¡nd": 18606,
  "Ã¡ng": 30344,
  "Ã¡nh": 33434,
  "Ã¡nt": 27525,
  "Ã¡o": 45202,
  "Ã¡p": 15059,
  "Ã¡r": 20335,
  "Ã¡ri": 11758,
  "Ã¡ria": 31861,
  "Ã¡rias": 24952,
  "Ã¡rio": 12657,
  "Ã¡rios": 15644,
  "Ã¡s": 2490,
  "Ã¡st": 25952,
  "Ã¡stico": 44855,
  "Ã¡t": 7656,
  "Ã¡tica": 23432,
  "Ã¡ticas": 44997,
  "Ã¡tico": 28234,
  "Ã¡veis": 42530,
  "Ã¡vel": 20224,
  "Ã¡z": 42970,
  "Ã¢": 3201,
  "Ã¢ce": 27988,
  "Ã¢l": 40106,
  "Ã¢m": 24484,
  "Ã¢n": 9667,
  "Ã¢ncia": 25677,
  "Ã¢nd": 45840,
  "Ã¢r": 42648,
  "Ã¢t": 29190,
  "Ã¢te": 33680,
  "Ã¢u": 24325,
  "Ã¢y": 12108,
  "Ã£": 1046,
  "Ã£o": 1076,
  "Ã£os": 46550,
  "Ã£y": 49205,
  "Ã¤": 737,
  "Ã¤ch": 10168,
  "Ã¤che": 32664,
  "Ã¤chen": 45118,
  "Ã¤chlich": 18195,
  "Ã¤chst": 28679,
  "Ã¤d": 16837,
  "Ã¤ft": 19210,
  "Ã¤g": 50041,
  "Ã¤h": 6860,
  "Ã¤hlt": 43376,
  "Ã¤hr": 12021,
  "Ã¤hrt": 37458,
  "Ã¤hÃ¤n": 24965,
  "Ã¤ischen": 43599,
  "Ã¤l": 9063,
  "Ã¤ll": 10053,
  "Ã¤lle": 31447,
  "Ã¤llen": 46181,
  "Ã¤llet": 44535,
  "Ã¤llt": 25333,
  "Ã¤lt": 15510,
  "Ã¤m": 9559,
  "Ã¤mÃ¤": 20962,
  "Ã¤mÃ¤n": 41409,
  "Ã¤n": 4029,
  "Ã¤nd": 5524,
  "Ã¤nde": 26973,
  "Ã¤nder": 16082,
  "Ã¤ndern": 28856,
  "Ã¤ndert": 34945,
  "Ã¤ndig": 38861,
  "Ã¤ng": 9935,
  "Ã¤nge": 29091,
  "Ã¤ngen": 43921,
  "Ã¤nger": 35174,
  "Ã¤ngt": 29670,
  "Ã¤nn": 24507,
  "Ã¤nner": 24403,
  "Ã¤r": 2713,
  "Ã¤re": 12277,
  "Ã¤ren": 21465,
  "Ã¤rke": 37355,
  "Ã¤rt": 24802,
  "Ã¤s": 13555,
  "Ã¤sident": 22216,
  "Ã¤ss": 49045,
  "Ã¤t": 3628,
  "Ã¤ter": 20230,
  "Ã¤tt": 11567,
  "Ã¤tta": 34802,
  "Ã¤tte": 34229,
  "Ã¤tter": 41033,
  "Ã¤ttre": 44225,
  "Ã¤tz": 39983,
  "Ã¤tze": 30179,
  "Ã¤tzen": 45721,
  "Ã¤tzlich": 33373,
  "Ã¤us": 31611,
  "Ã¤v": 35585,
  "Ã¤Ã¤": 8942,
  "Ã¤Ã¤n": 11718,
  "Ã¥": 1330,
  "Ã¥ng": 16906,
  "Ã¥r": 6057,
  "Ã¥rt": 45287,
  "Ã¥t": 45845,
  "Ã¦": 7303,
  "Ã¦r": 32011,
  "Ã§": 1138,
  "Ã§a": 5297,
  "Ã§ar": 26378,
  "Ã§as": 20016,
  "Ã§e": 32115,
  "Ã§ek": 19088,
  "Ã§i": 45860,
  "Ã§o": 8560,
  "Ã§on": 17134,
  "Ã§ons": 40946,
  "Ã§os": 26828,
  "Ã§u": 35708,
  "Ã§Ã£o": 2917,
  "Ã§Ãµes": 8001,
  "Ã¨": 1462,
  "Ã¨ce": 30236,
  "Ã¨ces": 44778,
  "Ã¨g": 30370,
  "Ã¨ge": 44924,
  "Ã¨le": 29844,
  "Ã¨me": 8433,
  "Ã¨mes": 27164,
  "Ã¨n": 20917,
  "Ã¨ncia": 28917,
  "Ã¨ne": 18832,
  "Ã¨re": 4212,
  "Ã¨res": 13927,
  "Ã¨s": 3645,
  "Ã¨se": 45238,
  "Ã¨t": 18177,
  "Ã¨te": 22279,
  "Ã¨tement": 27236,
  "Ã¨tres": 36506,
  "Ã¨ve": 31397,
  "Ã©": 526,
  "Ã©c": 9062,
  "Ã©ch": 30606,
  "Ã©cole": 42415,
  "Ã©d": 7811,
  "Ã©e": 3856,
  "Ã©es": 6836,
  "Ã©f": 38821,
  "Ã©g": 9095,
  "Ã©ger": 41461,
  "Ã©is": 15064,
  "Ã©k": 44879,
  "Ã©l": 8025,
  "Ã©lior": 44795,
  "Ã©lÃ©": 19559,
  "Ã©m": 4011,
  "Ã©ma": 50201,
  "Ã©ment": 17595,
  "Ã©mie": 44809,
  "Ã©mon": 18039,
  "Ã©n": 3516,
  "Ã©nd": 34577,
  "Ã©ner": 29535,
  "Ã©nergie": 44154,
  "Ã©nom": 46247,
  "Ã©nt": 37239,
  "Ã©o": 45805,
  "Ã©p": 16171,
  "Ã©poque": 35580,
  "Ã©qu": 20183,
  "Ã©r": 4198,
  "Ã©ra": 28199,
  "Ã©ral": 20596,
  "Ã©ration": 27901,
  "Ã©rcito": 48723,
  "Ã©rence": 41635,
  "Ã©rer": 21824,
  "Ã©ri": 12052,
  "Ã©ric": 27578,
  "Ã©rica": 32716,
  "Ã©rie": 10746,
  "Ã©rience": 35627,
  "Ã©rieur": 24608,
  "Ã©rio": 37237,
  "Ã©rique": 36232,
  "Ã©ro": 26913,
  "Ã©rt": 33672,
  "Ã©rÃ©": 29071,
  "Ã©rÃªt": 44791,
  "Ã©s": 2191,
  "Ã©st": 49180,
  "Ã©sus": 49776,
  "Ã©sz": 47411,
  "Ã©t": 4051,
  "Ã©ta": 17902,
  "Ã©tais": 22824,
  "Ã©tait": 9743,
  "Ã©tat": 49073,
  "Ã©tica": 37272,
  "Ã©tico": 39958,
  "Ã©tique": 42379,
  "Ã©tÃ©": 21210,
  "Ã©v": 26375,
  "Ãª": 1307,
  "Ãªm": 13213,
  "Ãªme": 5069,
  "Ãªmement": 37540,
  "Ãªmes": 31145,
  "Ãªn": 5050,
  "Ãªncia": 9322,
  "Ãªncias": 32715,
  "Ãªnio": 39266,
  "Ãªs": 11987,
  "Ãªt": 15519,
  "Ãªte": 12943,
  "Ãªter": 37754,
  "Ãªtes": 38262,
  "Ãªtre": 9498,
  "Ãªts": 44309,
  "Ãªu": 28310,
  "Ã«": 15101,
  "Ã«l": 36343,
  "Ã¬": 4749,
  "Ã¬n": 41320,
  "Ã¬nh": 10116,
  "Ã®": 7517,
  "Ã®ne": 24741,
  "Ã®t": 20028,
  "Ã®tre": 25011,
  "Ã¯": 15487,
  "Ã°": 23436,
  "Ã±": 2791,
  "Ã±a": 12150,
  "Ã±ana": 31823,
  "Ã±as": 32448,
  "Ã±o": 7716,
  "Ã±os": 8242,
  "Ã²": 4293,
  "Ã²n": 23329,
  "Ã²ng": 36782,
  "Ã³": 812,
  "Ã³b": 14216,
  "Ã³c": 40993,
  "Ã³d": 17081,
  "Ã³g": 14047,
  "Ã³j": 18999,
  "Ã³l": 15741,
  "Ã³le": 28287,
  "Ã³m": 23818,
  "Ã³mo": 20436,
  "Ã³n": 1801,
  "Ã³p": 47773,
  "Ã³r": 15614,
  "Ã³ria": 15250,
  "Ã³rio": 35052,
  "Ã³s": 12994,
  "Ã³st": 45052,
  "Ã³t": 34712,
  "Ã³w": 3901,
  "Ã³ÅĤ": 16181,
  "Ã´": 2851,
  "Ã´i": 12213,
  "Ã´le": 22313,
  "Ã´m": 25670,
  "Ã´n": 17140,
  "Ã´ng": 8217,
  "Ã´t": 8775,
  "Ãµ": 5536,
  "Ãµes": 6036,
  "Ã¶": 973,
  "Ã¶d": 29747,
  "Ã¶ff": 30453,
  "Ã¶g": 50023,
  "Ã¶glich": 16277,
  "Ã¶h": 23817,
  "Ã¶k": 23581,
  "Ã¶l": 13072,
  "Ã¶lker": 40268,
  "Ã¶ll": 27765,
  "Ã¶llig": 34528,
  "Ã¶m": 32374,
  "Ã¶n": 3239,
  "Ã¶r": 2311,
  "Ã¶ren": 26377,
  "Ã¶rper": 25533,
  "Ã¶rt": 11454,
  "Ã¶rung": 46676,
  "Ã¶s": 11310,
  "Ã¶st": 36995,
  "Ã¶t": 12082,
  "Ã¶tt": 41871,
  "Ã¶tzlich": 44638,
  "Ã¶yle": 6348,
  "Ã¶z": 26698,
  "Ã¶ÃŁ": 18595,
  "Ã¸": 6715,
  "Ã¸r": 15499,
  "Ã¸re": 35435,
  "Ã¹": 5035,
  "Ã¹ng": 27065,
  "Ãº": 2481,
  "Ãºa": 46362,
  "Ãºblic": 12715,
  "Ãºblica": 36638,
  "Ãºc": 31585,
  "Ãºcar": 37774,
  "Ãºde": 34458,
  "Ãºlt": 43447,
  "Ãºn": 9453,
  "Ãºng": 16926,
  "Ãºp": 44492,
  "Ãºs": 10227,
  "Ãºsica": 14372,
  "Ãºt": 32852,
  "Ã»": 8879,
  "Ã»t": 30692,
  "Ã¼": 774,
  "Ã¼ber": 12670,
  "Ã¼cht": 36458,
  "Ã¼ck": 6536,
  "Ã¼cke": 37383,
  "Ã¼cken": 26037,
  "Ã¼cklich": 38483,
  "Ã¼cks": 41687,
  "Ã¼ckt": 37532,
  "Ã¼d": 47731,
  "Ã¼f": 39733,
  "Ã¼g": 25644,
  "Ã¼gen": 45336,
  "Ã¼h": 7254,
  "Ã¼her": 27775,
  "Ã¼hl": 21692,
  "Ã¼hr": 11986,
  "Ã¼hren": 29540,
  "Ã¼hrt": 19647,
  "Ã¼k": 8370,
  "Ã¼l": 10548,
  "Ã¼ler": 29297,
  "Ã¼ll": 32385,
  "Ã¼llt": 49976,
  "Ã¼lme": 38050,
  "Ã¼m": 8966,
  "Ã¼man": 48585,
  "Ã¼mÃ¼": 48326,
  "Ã¼mÃ¼z": 42909,
  "Ã¼n": 3412,
  "Ã¼nd": 9541,
  "Ã¼nde": 25596,
  "Ã¼nden": 27687,
  "Ã¼ne": 21148,
  "Ã¼nf": 26292,
  "Ã¼ng": 36216,
  "Ã¼nk": 14402,
  "Ã¼nkÃ¼": 18351,
  "Ã¼nst": 36656,
  "Ã¼nÃ¼": 29598,
  "Ã¼nÃ¼z": 38740,
  "Ã¼p": 42693,
  "Ã¼r": 1655,
  "Ã¼rd": 39717,
  "Ã¼re": 39951,
  "Ã¼rlich": 7963,
  "Ã¼rÃ¼": 26481,
  "Ã¼s": 16608,
  "Ã¼ss": 35207,
  "Ã¼ssel": 37838,
  "Ã¼st": 44244,
  "Ã¼t": 7695,
  "Ã¼tfen": 38655,
  "Ã¼tzen": 42049,
  "Ã¼tÃ¼n": 22153,
  "Ã¼y": 12494,
  "Ã¼yor": 18644,
  "Ã¼yorsun": 41353,
  "Ã¼yorum": 33332,
  "Ã¼z": 4934,
  "Ã¼zel": 13130,
  "Ã¼zik": 10920,
  "Ã¼ÄŁ": 22719,
  "Ã¼ÅŁ": 8743,
  "Ã½": 11822,
  "Ã½ch": 41845,
  "Ã¿": 18798,
  "Ã¿Ã¿": 19551,
  "Ã¿Ã¿Ã¿Ã¿": 31607,
  "Ã¿Ã¿Ã¿Ã¿Ã¿Ã¿Ã¿Ã¿": 49951,
  "Ãģ": 32172,
  "Ãĥ": 49126,
  "Ãĩ": 27707,
  "Ãī": 14891,
  "Ãį": 33662,
  "Ãĳ": 35763,
  "Ãĵ": 42672,
  "Ãĸ": 25719,
  "ÃĹ": 37550,
  "Ãļ": 42635,
  "Ãľ": 12272,
  "ÃľND": 23195,
  "ÃľNDNIS": 23222,
  "ÃŁ": 2536,
  "ÃŁe": 11451,
  "ÃŁen": 8989,
  "ÃŁer": 30369,
  "ÃŁerdem": 35957,
  "Ãł": 1467,
  "Ãłcies": 40875,
  "Ãłi": 21971,
  "Ãłn": 22476,
  "Ãłng": 26653,
  "Ãłnh": 24449,
  "Ãło": 20807,
  "Ãłs": 32620,
  "Ãły": 9524,
  "ÃŃ": 870,
  "ÃŃa": 2686,
  "ÃŃamos": 16275,
  "ÃŃan": 11084,
  "ÃŃas": 10025,
  "ÃŃb": 49662,
  "ÃŃch": 30839,
  "ÃŃcia": 30050,
  "ÃŃcio": 26162,
  "ÃŃcios": 49564,
  "ÃŃcul": 15304,
  "ÃŃculo": 34365,
  "ÃŃculos": 48229,
  "ÃŃd": 24455,
  "ÃŃda": 39080,
  "ÃŃdo": 28470,
  "ÃŃem": 45278,
  "ÃŃfic": 18869,
  "ÃŃgen": 36492,
  "ÃŃlia": 23392,
  "ÃŃll": 40641,
  "ÃŃm": 14569,
  "ÃŃn": 10973,
  "ÃŃna": 42279,
  "ÃŃnh": 26994,
  "ÃŃo": 20492,
  "ÃŃp": 28236,
  "ÃŃr": 31338,
  "ÃŃre": 26591,
  "ÃŃs": 5113,
  "ÃŃsimo": 49889,
  "ÃŃss": 36375,
  "ÃŃst": 19512,
  "ÃŃt": 6712,
  "ÃŃtulo": 30389,
  "ÃŃv": 45096,
  "ÃŃve": 38059,
  "ÃŃveis": 34934,
  "ÃŃvel": 13185,
  "ÃŃz": 44551,
  "Ä": 128,
  "Ä©": 28490,
  "Ä«": 13679,
  "Ä°": 20320,
  "Ä±": 699,
  "Ä±k": 4157,
  "Ä±kt": 25207,
  "Ä±l": 5492,
  "Ä±lan": 50095,
  "Ä±lar": 24121,
  "Ä±ld": 21473,
  "Ä±ldÄ±": 46767,
  "Ä±ll": 37652,
  "Ä±lmÄ±ÅŁ": 48871,
  "Ä±lÄ±": 41039,
  "Ä±m": 2648,
  "Ä±ma": 37722,
  "Ä±mÄ±": 22569,
  "Ä±mÄ±z": 13990,
  "Ä±mÄ±zÄ±": 48119,
  "Ä±n": 2263,
  "Ä±na": 9236,
  "Ä±nd": 6208,
  "Ä±nda": 8431,
  "Ä±ndaki": 47028,
  "Ä±ndan": 16293,
  "Ä±nt": 42234,
  "Ä±nÄ±": 7760,
  "Ä±nÄ±n": 21006,
  "Ä±nÄ±z": 13277,
  "Ä±p": 17091,
  "Ä±r": 3702,
  "Ä±rd": 43983,
  "Ä±rÄ±m": 36053,
  "Ä±s": 12871,
  "Ä±sÄ±": 28495,
  "Ä±t": 44610,
  "Ä±y": 8472,
  "Ä±yla": 25077,
  "Ä±yor": 7618,
  "Ä±yorlar": 35974,
  "Ä±yorsun": 17520,
  "Ä±yorum": 15230,
  "Ä±yoruz": 24459,
  "Ä±yÄ±": 48684,
  "Ä±z": 4041,
  "Ä±Ä±": 35734,
  "Ä±ÄŁ": 7366,
  "Ä±ÄŁÄ±": 15977,
  "Ä±ÄŁÄ±m": 24006,
  "Ä±ÄŁÄ±mÄ±z": 35385,
  "Ä±ÄŁÄ±n": 39710,
  "Ä±ÄŁÄ±nÄ±": 33007,
  "Ä±ÅŁ": 4951,
  "Ä¾": 46634,
  "Äģ": 5610,
  "Äģh": 32121,
  "Äģm": 43642,
  "Äģn": 42223,
  "Äĥ": 4089,
  "Äĥm": 21434,
  "Äĥn": 49214,
  "Äĥng": 34705,
  "Äħ": 1611,
  "Äħd": 18962,
  "Äħda": 26398,
  "Äħt": 23430,
  "ÄħÄĩ": 36374,
  "ÄħÅ¼": 27242,
  "Äĩ": 2162,
  "Äį": 10236,
  "Äı": 45907,
  "Äĵ": 19222,
  "ÄĹ": 22029,
  "ÄĻ": 1274,
  "ÄĻd": 6298,
  "ÄĻdzie": 42643,
  "ÄĻdzy": 33779,
  "ÄĻp": 18085,
  "ÄĻt": 46788,
  "ÄĽ": 9648,
  "ÄŁ": 1640,
  "ÄŁa": 38004,
  "ÄŁan": 43588,
  "ÄŁer": 19119,
  "ÄŁi": 12498,
  "ÄŁim": 9272,
  "ÄŁimiz": 31930,
  "ÄŁin": 31955,
  "ÄŁini": 37312,
  "ÄŁl": 14142,
  "ÄŁlu": 47644,
  "ÄŁlum": 19943,
  "ÄŁu": 39800,
  "ÄŁÄ±": 17404,
  "Å": 129,
  "Å¡": 7891,
  "Å¡e": 42717,
  "Å¡ÃŃ": 48651,
  "Å¥": 27101,
  "Å«": 19056,
  "Å¯": 23241,
  "Å±": 33150,
  "Å³": 28102,
  "Åº": 10659,
  "Åºniej": 33405,
  "Å¼": 1427,
  "Å¼a": 35075,
  "Å¼e": 2875,
  "Å¼ej": 38493,
  "Å¼eli": 17175,
  "Å¼en": 24930,
  "Å¼enia": 48830,
  "Å¼enie": 41118,
  "Å¼y": 7735,
  "Å¼yÄĩ": 39687,
  "Å¾": 9159,
  "Å¾e": 29913,
  "ÅĤ": 1221,
  "ÅĤa": 5024,
  "ÅĤad": 10358,
  "ÅĤada": 46217,
  "ÅĤam": 20177,
  "ÅĤby": 34635,
  "ÅĤbym": 43579,
  "ÅĤe": 19827,
  "ÅĤec": 33560,
  "ÅĤem": 11126,
  "ÅĤo": 5249,
  "ÅĤos": 48584,
  "ÅĤoÅĽci": 35059,
  "ÅĤoÅĽÄĩ": 44742,
  "ÅĤu": 24066,
  "ÅĤug": 34077,
  "ÅĤum": 49166,
  "ÅĤy": 6825,
  "ÅĤych": 47655,
  "ÅĤÄħ": 15926,
  "ÅĤÄħcz": 43558,
  "ÅĤÄĻ": 46564,
  "ÅĦ": 5248,
  "ÅĦsk": 27125,
  "ÅĦst": 12229,
  "ÅĨ": 43657,
  "Åį": 27243,
  "Åĳ": 12511,
  "Åĳl": 45490,
  "Åĵ": 34073,
  "ÅĻ": 15781,
  "ÅĽ": 1788,
  "ÅĽci": 6199,
  "ÅĽcie": 9815,
  "ÅĽciÄħ": 50227,
  "ÅĽl": 19212,
  "ÅĽli": 15350,
  "ÅĽlÄĻ": 28749,
  "ÅĽmy": 10513,
  "ÅĽnie": 12221,
  "ÅĽniej": 37511,
  "ÅĽwiad": 37750,
  "ÅĽÄĩ": 7753,
  "Åŀ": 28705,
  "ÅŁ": 1165,
  "ÅŁa": 31067,
  "ÅŁallah": 34870,
  "ÅŁam": 40839,
  "ÅŁekkÃ¼r": 32429,
  "Æ": 130,
  "Æ¡": 9621,
  "Æ¡i": 21537,
  "Æ¡n": 23513,
  "Æ°": 4228,
  "Æ°a": 27060,
  "Æ°ng": 42509,
  "Æ°Æ¡": 24416,
  "Æ°Æ¡ng": 24605,
  "Æ°á»": 5829,
  "Æ°á»£": 12725,
  "Æ°á»£c": 14737,
  "Æ°á»£ng": 47001,
  "Æ°á»Ľ": 17059,
  "Æ°á»Ľc": 19578,
  "Æ°á»Ŀ": 23648,
  "Æ°á»Ŀi": 14531,
  "Æ°á»Ŀng": 24280,
  "Æ°á»Ł": 48443,
  "Æ°á»Łng": 49301,
  "Ç": 131,
  "È": 132,
  "ÈĻ": 10355,
  "ÈĽ": 15918,
  "ÈĽi": 19999,
  "É": 133,
  "ÉĻ": 7250,
  "ÉĻn": 36769,
  "ÉĻr": 33145,
  "Ê": 134,
  "Ë": 135,
  "Ì": 136,
  "Ìģ": 32797,
  "Í": 137,
  "Î": 138,
  "Î¬": 3849,
  "Î¬Î»": 39650,
  "Î¬Î½": 16636,
  "Î®": 7068,
  "Î®ÏĤ": 42647,
  "Î®Ïĥ": 28299,
  "Î¯": 3721,
  "Î¯Î±": 13316,
  "Î¯Î±ÏĤ": 45281,
  "Î¯Î¶": 43805,
  "Î¯Î½": 10605,
  "Î¯Î½Î±Î¹": 14738,
  "Î¯Î¿": 49669,
  "Î±": 1529,
  "Î±Î¹": 5074,
  "Î±Î½": 17928,
  "Î±ÏĤ": 15857,
  "Î²": 14836,
  "Î²Î±": 48298,
  "Î³": 6744,
  "Î³Î¬": 46446,
  "Î³Î±": 40691,
  "Î³Î¿": 40761,
  "Î´": 8385,
  "Î´Î®": 47186,
  "Î´Î±": 40409,
  "Î´Ïİ": 38022,
  "Îµ": 2080,
  "ÎµÎ¯": 15903,
  "ÎµÎ¹": 6452,
  "ÎµÎ¹Î±": 41198,
  "ÎµÎ¹ÏĤ": 21878,
  "ÎµÎ½": 16430,
  "ÎµÏĤ": 16946,
  "ÎµÏĦÎ±Î¹": 39686,
  "ÎµÏĦÎµ": 47440,
  "Î¶": 16008,
  "Î·": 3835,
  "Î·Î½": 39452,
  "Î¸": 9440,
  "Î¸Îµ": 32815,
  "Î¸Î·": 40939,
  "Î¹": 1835,
  "Î¹Î¬": 26855,
  "Î¹Î±": 8311,
  "Î¹Îº": 10073,
  "Î¹ÎºÎ¬": 35085,
  "Î¹ÎºÎ®": 35490,
  "Î¹ÎºÏĮ": 37789,
  "Î¹Î¿": 26330,
  "Î¹Ïĥ": 36876,
  "Îº": 4915,
  "ÎºÎ±": 31714,
  "ÎºÎµ": 29846,
  "ÎºÎ¹": 39328,
  "Î»": 3659,
  "Î»Î¬": 30717,
  "Î»Î±": 20511,
  "Î»Îµ": 26589,
  "Î»Î·": 26836,
  "Î»Î¹": 48253,
  "Î»Î»": 14870,
  "Î»Î»Î¬": 29523,
  "Î»Î¿": 32043,
  "Î»ÎŃ": 35780,
  "Î¼": 4043,
  "Î¼Î¬": 34079,
  "Î¼Î±": 11656,
  "Î¼Î±Î¹": 47861,
  "Î¼Î±ÏĦÎ±": 40370,
  "Î¼Îµ": 9104,
  "Î¼Î·": 48775,
  "Î¼Î¿": 31188,
  "Î¼ÎŃ": 27683,
  "Î½": 2254,
  "Î½Î±": 11658,
  "Î½Îµ": 33642,
  "Î½Î·": 32927,
  "Î½Î¿": 17444,
  "Î¾": 16134,
  "Î¿": 1800,
  "Î¿Î¹": 19264,
  "Î¿Î¹ÏĢÏĮÎ½": 48322,
  "Î¿Î»": 19357,
  "Î¿Î½": 21731,
  "Î¿ÏĤ": 22281,
  "Î¿Ïħ": 4486,
  "Î¿ÏħÎ¼Îµ": 16301,
  "Î¿ÏħÎ½": 20867,
  "Î¿ÏħÏĤ": 29395,
  "Î¿Ïį": 14940,
  "Î¿ÏįÎ¼Îµ": 43106,
  "ÎŃ": 5554,
  "ÎŃÎ»": 33694,
  "ÎŃÏģ": 40810,
  "ÎŃÏĤ": 24949,
  "Ï": 139,
  "ÏĢ": 4339,
  "ÏĢÎ¬": 38460,
  "ÏĢÎ±": 32578,
  "ÏĢÎµ": 36445,
  "ÏĢÎµÎ¹": 39533,
  "ÏĢÎ¿": 11188,
  "ÏĢÎ¿Î¹": 39348,
  "ÏĢÎ¿Ïħ": 49434,
  "ÏĢÏīÏĤ": 47785,
  "ÏĢÏĮ": 14220,
  "ÏĢÏĮÎ½": 47657,
  "Ïģ": 2805,
  "ÏģÎ¬": 17750,
  "ÏģÎ¯": 24296,
  "ÏģÎ±": 9903,
  "ÏģÎ³": 32300,
  "ÏģÎµ": 27672,
  "ÏģÎµÎ¯": 42470,
  "ÏģÎ·": 33281,
  "ÏģÎ¹": 13477,
  "ÏģÎ¿": 11904,
  "ÏģÎ¿Ïį": 43103,
  "ÏģÎŃ": 28788,
  "ÏģÏĩ": 30332,
  "ÏģÏī": 28684,
  "ÏģÏĮ": 21457,
  "ÏģÏİ": 28758,
  "ÏĤ": 3371,
  "Ïĥ": 3786,
  "ÏĥÎ±": 23791,
  "ÏĥÎµ": 25573,
  "ÏĥÎµÎ¹": 39320,
  "ÏĥÎ·": 17688,
  "ÏĥÎ¹": 29756,
  "ÏĥÏĦ": 22156,
  "ÏĥÏĦÎµ": 29333,
  "ÏĥÏī": 43326,
  "ÏĦ": 1781,
  "ÏĦÎ¬": 19389,
  "ÏĦÎ¯": 30393,
  "ÏĦÎ±": 9213,
  "ÏĦÎ±Î¹": 23259,
  "ÏĦÎ±Î½": 26263,
  "ÏĦÎµ": 9137,
  "ÏĦÎ·": 12942,
  "ÏĦÎ¹": 13580,
  "ÏĦÎ¹Îº": 25733,
  "ÏĦÎ¿": 10600,
  "ÏĦÎ¿Ïį": 47249,
  "ÏĦÎŃ": 49306,
  "ÏĦÏĮ": 49778,
  "Ïħ": 3226,
  "ÏħÏĦ": 15009,
  "ÏħÏĩ": 43557,
  "ÏĨ": 12015,
  "ÏĨÎ¿": 46002,
  "Ïĩ": 7597,
  "ÏĪ": 34169,
  "Ïī": 5733,
  "ÏīÎ½": 19851,
  "ÏīÏĤ": 22788,
  "ÏĮ": 4826,
  "ÏĮÏĤ": 30599,
  "ÏĮÏĥ": 41292,
  "ÏĮÏĦÎµ": 48545,
  "Ïį": 6956,
  "Ïİ": 8828,
  "ÏİÎ½": 31195,
  "ÏİÏģÎ±": 44352,
  "ÏİÏĤ": 40635,
  "Ð": 140,
  "Ð¡": 8068,
  "Ð¡Ð¢": 40752,
  "Ð¡Ð¿": 47306,
  "Ð¢": 8556,
  "Ð¢Ð°Ðº": 39005,
  "Ð¢Ñĭ": 37206,
  "Ð£": 11887,
  "Ð¤": 35753,
  "Ð¥": 24665,
  "Ð§": 17519,
  "Ð§ÑĤÐ¾": 35569,
  "Ð¨": 26541,
  "Ð¨ÐĲ": 34943,
  "Ð«": 16214,
  "Ð¬": 37796,
  "Ð¯": 10741,
  "Ð°": 386,
  "Ð°Ð": 549,
  "Ð°Ð±": 3771,
  "Ð°Ð±Ð°ÑĤ": 42304,
  "Ð°Ð±Ð¾ÑĤ": 7237,
  "Ð°Ð²": 1828,
  "Ð°Ð²Ð°Ð¹": 46745,
  "Ð°Ð²Ð°ÑĤÑĮ": 38945,
  "Ð°Ð²Ð»Ð¸Ð²": 41479,
  "Ð°Ð²Ð½Ð¾": 40394,
  "Ð°Ð³": 5583,
  "Ð°Ð³Ð¾": 33747,
  "Ð°Ð´": 2601,
  "Ð°Ð´Ð°": 44660,
  "Ð°Ð´Ð¸": 18389,
  "Ð°Ð´Ð½Ð¾": 27225,
  "Ð°Ð´ÑĨ": 42208,
  "Ð°ÐµÐ¼": 7906,
  "Ð°ÐµÐ¼ÑģÑı": 43768,
  "Ð°ÐµÑĤ": 3310,
  "Ð°ÐµÑĤÐµ": 17670,
  "Ð°ÐµÑĤÑģÑı": 6970,
  "Ð°ÐµÑĪÑĮ": 17266,
  "Ð°Ð¶": 3234,
  "Ð°Ð¶Ð´": 11413,
  "Ð°Ð¶Ðµ": 9475,
  "Ð°Ð¶Ð¸": 43862,
  "Ð°Ð¶Ñĥ": 29294,
  "Ð°Ð·": 1990,
  "Ð°Ð·Ð´": 48799,
  "Ð°Ð·ÑĭÐ²": 10442,
  "Ð°Ð¹": 3183,
  "Ð°Ð¹Ð½": 32920,
  "Ð°Ð¹ÑĤ": 23055,
  "Ð°Ð¹ÑĤÐµ": 10330,
  "Ð°Ð¹ÑĤÐµÑģÑĮ": 30100,
  "Ð°Ðº": 1272,
  "Ð°ÐºÐ°": 39558,
  "Ð°ÐºÐ¸": 48877,
  "Ð°ÐºÐ¾Ð²": 34119,
  "Ð°ÐºÑģ": 23289,
  "Ð°ÐºÑģÐ¸Ð¼": 28630,
  "Ð°ÐºÑĤÐµÑĢ": 38659,
  "Ð°ÐºÑĤÐ¸": 20035,
  "Ð°Ð»": 1218,
  "Ð°Ð»Ð°": 6232,
  "Ð°Ð»Ð°ÑģÑĮ": 19711,
  "Ð°Ð»Ðµ": 21134,
  "Ð°Ð»Ð¸": 4071,
  "Ð°Ð»Ð¸Ð·": 28105,
  "Ð°Ð»Ð¸ÑģÑĤ": 36948,
  "Ð°Ð»Ð¸ÑģÑĮ": 15020,
  "Ð°Ð»Ð¾": 12441,
  "Ð°Ð»Ð¾Ð³": 49895,
  "Ð°Ð»Ð¾ÑģÑĮ": 16122,
  "Ð°Ð»ÑģÑı": 13340,
  "Ð°Ð»Ñĭ": 49193,
  "Ð°Ð»ÑĮ": 3842,
  "Ð°Ð»ÑĮÐ½Ð°Ñı": 32016,
  "Ð°Ð»ÑĮÐ½Ð¾": 10986,
  "Ð°Ð»ÑĮÐ½Ð¾Ð³Ð¾": 31227,
  "Ð°Ð»ÑĮÐ½Ð¾Ðµ": 33322,
  "Ð°Ð»ÑĮÐ½Ð¾Ð¹": 27749,
  "Ð°Ð»ÑĮÐ½Ð¾Ð¼": 49980,
  "Ð°Ð»ÑĮÐ½ÑĥÑİ": 48062,
  "Ð°Ð»ÑĮÐ½ÑĭÐµ": 25967,
  "Ð°Ð»ÑĮÐ½ÑĭÐ¹": 23393,
  "Ð°Ð»ÑĮÐ½ÑĭÐ¼": 45384,
  "Ð°Ð»ÑĮÐ½ÑĭÑħ": 30834,
  "Ð°Ð¼": 1685,
  "Ð°Ð¼Ð°": 27250,
  "Ð°Ð¼ÐµÐ½": 44873,
  "Ð°Ð¼Ð¸": 5150,
  "Ð°Ð½": 1416,
  "Ð°Ð½Ð°": 15253,
  "Ð°Ð½Ð´": 12551,
  "Ð°Ð½Ðµ": 32456,
  "Ð°Ð½Ð¸": 3733,
  "Ð°Ð½Ð¸Ðµ": 9633,
  "Ð°Ð½Ð¸ÐµÐ¼": 32861,
  "Ð°Ð½Ð¸Ð·": 27068,
  "Ð°Ð½Ð¸Ð¸": 16426,
  "Ð°Ð½Ð¸Ð¹": 28204,
  "Ð°Ð½Ð¸Ñĩ": 44819,
  "Ð°Ð½Ð¸Ñİ": 34537,
  "Ð°Ð½Ð¸Ñı": 8831,
  "Ð°Ð½Ð½ÑĭÐµ": 40194,
  "Ð°Ð½Ð½ÑĭÐ¹": 39058,
  "Ð°Ð½Ð½Ñı": 23521,
  "Ð°Ð½Ð¾": 19545,
  "Ð°Ð½Ð¾Ð²": 11114,
  "Ð°Ð½Ñģ": 15720,
  "Ð°Ð½ÑĤ": 15073,
  "Ð°Ð½ÑĤÐ¸": 47483,
  "Ð°Ð½Ñĭ": 18368,
  "Ð°Ð½ÑĮ": 23340,
  "Ð°Ð½ÑĮÑĪÐµ": 35159,
  "Ð°Ð¿": 4219,
  "Ð°ÑĢ": 2222,
  "Ð°ÑĢÐ°": 29522,
  "Ð°ÑĢÐ´": 49009,
  "Ð°ÑĢÐ¸": 16370,
  "Ð°ÑĢÐ¸Ñī": 43028,
  "Ð°ÑĢÐ¾Ð²": 48708,
  "Ð°ÑĢÑĤ": 27419,
  "Ð°ÑĢÑĭ": 48632,
  "Ð°Ñģ": 2019,
  "Ð°ÑģÐ¸Ð±Ð¾": 18305,
  "Ð°ÑģÑģ": 12886,
  "Ð°ÑģÑĤ": 9941,
  "Ð°ÑģÑĤÐ²": 47541,
  "Ð°ÑģÑĤÐ¸": 36245,
  "Ð°ÑģÑĤÑĮ": 31789,
  "Ð°ÑģÑĮ": 10285,
  "Ð°ÑĤ": 2134,
  "Ð°ÑĤÐ°": 19808,
  "Ð°ÑĤÐµ": 49370,
  "Ð°ÑĤÐµÐ»ÐµÐ¹": 47573,
  "Ð°ÑĤÐµÐ»Ð¸": 43512,
  "Ð°ÑĤÐµÐ»ÑĮ": 10272,
  "Ð°ÑĤÐµÐ»ÑĮÐ½Ð¾": 20279,
  "Ð°ÑĤÐµÐ»Ñı": 41330,
  "Ð°ÑĤÐ¸": 9585,
  "Ð°ÑĤÐ¸Ð²": 30875,
  "Ð°ÑĤÐ¾": 38224,
  "Ð°ÑĤÐ¾Ð²": 48885,
  "Ð°ÑĤÑĥ": 29771,
  "Ð°ÑĤÑĭ": 32014,
  "Ð°ÑĤÑĮ": 2209,
  "Ð°ÑĤÑĮÑģÑı": 8525,
  "Ð°ÑĦ": 41232,
  "Ð°Ñħ": 7004,
  "Ð°ÑĨ": 32507,
  "Ð°ÑĨÐ¸": 8392,
  "Ð°ÑĨÐ¸Ð¸": 16715,
  "Ð°ÑĨÐ¸Ð¾Ð½": 44379,
  "Ð°ÑĨÐ¸Ñİ": 28254,
  "Ð°ÑĨÐ¸Ñı": 21235,
  "Ð°Ñĩ": 8314,
  "Ð°ÑĩÐµ": 24923,
  "Ð°ÑĪ": 6835,
  "Ð°ÑĪÐ°": 34461,
  "Ð°Ñİ": 3776,
  "Ð°ÑİÑģÑĮ": 33963,
  "Ð°ÑİÑĤ": 6406,
  "Ð°ÑİÑĤÑģÑı": 15955,
  "Ð°ÑİÑĤÑĮ": 40381,
  "Ð°ÑİÑī": 18718,
  "Ð°Ñı": 4251,
  "Ð°ÑıÐ²": 36933,
  "Ð°ÑĶ": 19408,
  "Ð±": 1552,
  "Ð±Ð°": 29788,
  "Ð±Ð¸": 34843,
  "Ð±Ð¾": 18670,
  "Ð±Ñĥ": 33567,
  "Ð±Ñĭ": 25477,
  "Ð²": 859,
  "Ð²Ð°": 20635,
  "Ð²Ð°Ð»": 39451,
  "Ð²Ð°Ð½": 45593,
  "Ð²Ð°ÑĢ": 21291,
  "Ð²Ð°ÑĤ": 18928,
  "Ð²Ðµ": 41455,
  "Ð²ÐµÐ´": 32965,
  "Ð²ÐµÑĢ": 10327,
  "Ð²ÐµÑĢÐ¶": 42421,
  "Ð²ÐµÑĤ": 10828,
  "Ð²Ð¸": 43726,
  "Ð²Ð¸Ð³": 49405,
  "Ð²Ð¸Ð´": 42172,
  "Ð²Ð¸Ð½": 36823,
  "Ð²Ð¾": 12707,
  "Ð²Ð¾Ð´": 17533,
  "Ð²Ð¾Ð¹": 37325,
  "Ð²Ð¾Ð»": 20143,
  "Ð²Ð¾Ð½": 39672,
  "Ð²Ð¾ÑĢ": 21087,
  "Ð³": 1906,
  "Ð³Ð°": 18706,
  "Ð³Ðµ": 47849,
  "Ð³Ð¸": 15599,
  "Ð³Ð»Ð¸": 34220,
  "Ð³Ð»Ð¸Ð¹": 43249,
  "Ð³Ð»Ñı": 18720,
  "Ð³Ð»ÑıÐ´": 22232,
  "Ð³Ð¾": 4567,
  "Ð³Ð¾Ð²": 27531,
  "Ð³Ð¾ÑĢ": 45628,
  "Ð³Ð¾ÑĤÐ¾Ð²": 25965,
  "Ð³ÑĢ": 7786,
  "Ð³Ñĥ": 28264,
  "Ð´": 856,
  "Ð´Ð°": 3444,
  "Ð´Ðµ": 6790,
  "Ð´ÐµÐ»": 7946,
  "Ð´ÐµÑĢÐ¶": 24304,
  "Ð´Ð¶": 29181,
  "Ð´Ð¸": 14016,
  "Ð´Ð¾": 36091,
  "Ð´Ñĥ": 9031,
  "Ð´Ñĭ": 33275,
  "Ðµ": 387,
  "ÐµÐ": 615,
  "ÐµÐ±": 3749,
  "ÐµÐ²": 3515,
  "ÐµÐ²Ð°": 35946,
  "ÐµÐ²Ð¸Ð´": 44278,
  "ÐµÐ²Ð¸Ñĩ": 42110,
  "ÐµÐ²Ð¾Ð¹": 42308,
  "ÐµÐ³": 4953,
  "ÐµÐ³Ð´Ð°": 17540,
  "ÐµÐ³Ð¾": 4353,
  "ÐµÐ³Ð¾Ð´": 13709,
  "ÐµÐ³Ð¾Ð´Ð½Ñı": 14044,
  "ÐµÐ´": 2229,
  "ÐµÐ´Ð¸": 31960,
  "ÐµÐ´Ð¸Ð½": 30741,
  "ÐµÐ´ÑĮ": 16878,
  "ÐµÐµ": 7752,
  "ÐµÐ¶": 6029,
  "ÐµÐ¶Ð´": 41979,
  "ÐµÐ¶Ð´Ðµ": 48013,
  "ÐµÐ¶Ð´Ñĥ": 21207,
  "ÐµÐ·": 3634,
  "ÐµÐ·Ð´": 26510,
  "ÐµÐ·Ð´Ðµ": 46683,
  "ÐµÐ·Ð¶": 32682,
  "ÐµÐ¹": 2345,
  "ÐµÐ¹ÑģÑĤÐ²": 14377,
  "ÐµÐ¹ÑĩÐ°Ñģ": 8427,
  "ÐµÐº": 2872,
  "ÐµÐºÐ°": 36502,
  "ÐµÐºÐ¾": 18848,
  "ÐµÐºÐ¾ÑĤÐ¾ÑĢ": 23961,
  "ÐµÐºÑģ": 38269,
  "ÐµÐºÑģÑĤ": 34879,
  "ÐµÐºÑĤ": 9822,
  "ÐµÐºÑĤÐ¸Ð²": 31316,
  "ÐµÐºÑĤÐ¾ÑĢ": 39867,
  "ÐµÐ»": 1414,
  "ÐµÐ»Ð°": 19097,
  "ÐµÐ»Ðµ": 45230,
  "ÐµÐ»ÐµÐ¹": 19695,
  "ÐµÐ»ÐµÐ½": 21180,
  "ÐµÐ»Ð¸": 8334,
  "ÐµÐ»Ð¸Ñĩ": 37712,
  "ÐµÐ»Ð¾": 24846,
  "ÐµÐ»Ð¾Ð²": 9294,
  "ÐµÐ»ÑĮ": 3908,
  "ÐµÐ»ÑĮÐ·Ñı": 31240,
  "ÐµÐ»Ñİ": 34791,
  "ÐµÐ»Ñı": 15292,
  "ÐµÐ¼": 1504,
  "ÐµÐ¼Ð¾Ð½": 35786,
  "ÐµÐ¼ÑģÑı": 40811,
  "ÐµÐ¼Ñĥ": 8339,
  "ÐµÐ½": 1008,
  "ÐµÐ½Ð°": 13362,
  "ÐµÐ½Ð´": 23769,
  "ÐµÐ½ÐµÑĢ": 41758,
  "ÐµÐ½Ð¸": 2495,
  "ÐµÐ½Ð¸Ðµ": 5627,
  "ÐµÐ½Ð¸ÐµÐ¼": 21297,
  "ÐµÐ½Ð¸Ð¸": 15573,
  "ÐµÐ½Ð¸Ð¹": 17271,
  "ÐµÐ½Ð¸ÑĤÑĮ": 44436,
  "ÐµÐ½Ð¸Ñİ": 18830,
  "ÐµÐ½Ð¸Ñı": 5332,
  "ÐµÐ½ÐºÐ¾": 37794,
  "ÐµÐ½Ð½Ð°Ñı": 41994,
  "ÐµÐ½Ð½Ð¾": 6855,
  "ÐµÐ½Ð½Ð¾Ð³Ð¾": 44620,
  "ÐµÐ½Ð½Ð¾Ðµ": 48061,
  "ÐµÐ½Ð½Ð¾Ð¹": 36203,
  "ÐµÐ½Ð½ÑĭÐµ": 29643,
  "ÐµÐ½Ð½ÑĭÐ¹": 28488,
  "ÐµÐ½Ð½ÑĭÐ¼": 50106,
  "ÐµÐ½Ð½ÑĭÑħ": 32236,
  "ÐµÐ½Ð½Ñı": 25568,
  "ÐµÐ½Ð¾": 23512,
  "ÐµÐ½Ñģ": 35964,
  "ÐµÐ½ÑĤ": 5243,
  "ÐµÐ½ÑĤÐ°": 31985,
  "ÐµÐ½ÑĤÐ¸": 50091,
  "ÐµÐ½ÑĤÐ¾Ð²": 31028,
  "ÐµÐ½ÑĤÑĭ": 30762,
  "ÐµÐ½Ñĭ": 16148,
  "ÐµÐ½ÑĮ": 3888,
  "ÐµÐ½Ñı": 30710,
  "ÐµÐ¿": 5018,
  "ÐµÐ¿ÐµÑĢÑĮ": 12429,
  "ÐµÑĢ": 1135,
  "ÐµÑĢÐ°": 13126,
  "ÐµÑĢÐ±": 41934,
  "ÐµÑĢÐ²": 36441,
  "ÐµÑĢÐ³": 19480,
  "ÐµÑĢÐµ": 23498,
  "ÐµÑĢÐ¶": 11306,
  "ÐµÑĢÐ¸": 18019,
  "ÐµÑĢÐ¼": 49483,
  "ÐµÑĢÐ¾": 21146,
  "ÐµÑĢÐ¾Ð²": 33985,
  "ÐµÑĢÐ¾Ð¼": 33370,
  "ÐµÑĢÑĤ": 21768,
  "ÐµÑĢÑĤÐ²": 46023,
  "ÐµÑĢÑĥ": 29894,
  "ÐµÑĢÑħ": 26937,
  "ÐµÑĢÑĪ": 19465,
  "ÐµÑĢÑĭ": 24626,
  "ÐµÑĢÑĮ": 9352,
  "ÐµÑģ": 2292,
  "ÐµÑģÐ¿": 21186,
  "ÐµÑģÑģ": 13254,
  "ÐµÑģÑĤ": 5740,
  "ÐµÑģÑĤÐµ": 24076,
  "ÐµÑģÑĤÐ¸": 19154,
  "ÐµÑģÑĤÐ½Ð¾": 28779,
  "ÐµÑģÑĤÐ¾": 17561,
  "ÐµÑģÑĤÑĮ": 30704,
  "ÐµÑģÑĮ": 5647,
  "ÐµÑģÑı": 17615,
  "ÐµÑĤ": 1094,
  "ÐµÑĤÐ°": 20513,
  "ÐµÑĤÐµ": 10524,
  "ÐµÑĤÐ¸": 42378,
  "ÐµÑĤÑĢ": 42850,
  "ÐµÑĤÑĢÐ¾Ð²": 35852,
  "ÐµÑĤÑģÑı": 7299,
  "ÐµÑĤÑĥ": 48007,
  "ÐµÑĤÑĭ": 18810,
  "ÐµÑĤÑĮ": 9108,
  "ÐµÑĦ": 23854,
  "ÐµÑħ": 8008,
  "ÐµÑĨ": 10935,
  "ÐµÑĨÐ¸": 23931,
  "ÐµÑĩ": 4310,
  "ÐµÑĩÐ°ÑĤ": 35534,
  "ÐµÑĩÐµÐ½Ð¸Ðµ": 44274,
  "ÐµÑĩÐ½Ð¾": 11693,
  "ÐµÑĩÑĮ": 36111,
  "ÐµÑĪ": 4433,
  "ÐµÑĪÐµ": 42169,
  "ÐµÑĪÑĮ": 7815,
  "ÐµÑī": 12932,
  "ÐµÑİÑģÑĮ": 39007,
  "Ð¶": 1820,
  "Ð¶Ðµ": 4757,
  "Ð·": 1544,
  "Ð·Ð°": 18598,
  "Ð·Ð´": 36871,
  "Ð·Ñĭ": 23787,
  "Ð·Ñı": 29471,
  "Ð¸": 435,
  "Ð¸Ð±": 9772,
  "Ð¸Ð±Ð¾": 17597,
  "Ð¸Ð²": 2739,
  "Ð¸Ð²Ð°ÐµÐ¼": 33395,
  "Ð¸Ð²Ð°ÐµÑĤ": 25337,
  "Ð¸Ð²Ð°ÐµÑĤÑģÑı": 39864,
  "Ð¸Ð²Ð°Ð»": 47586,
  "Ð¸Ð²Ð°ÑĤÑĮ": 20566,
  "Ð¸Ð²Ð°ÑİÑĤ": 36603,
  "Ð¸Ð²ÐµÑĤ": 31259,
  "Ð¸Ð³": 11294,
  "Ð¸Ð³ÑĢ": 35600,
  "Ð¸Ð´": 3586,
  "Ð¸Ðµ": 5299,
  "Ð¸ÐµÐ¹": 48580,
  "Ð¸Ð¶": 15270,
  "Ð¸Ð¶Ñĥ": 36986,
  "Ð¸Ð·": 5572,
  "Ð¸Ð·Ð½ÐµÑģ": 43635,
  "Ð¸Ð¸": 7347,
  "Ð¸Ð¹": 6251,
  "Ð¸Ðº": 3605,
  "Ð¸ÐºÐ°": 17286,
  "Ð¸ÐºÐµ": 34154,
  "Ð¸ÐºÐ¸": 15562,
  "Ð¸ÐºÐ¾Ð²": 31041,
  "Ð¸ÐºÐ¾Ð¼": 48740,
  "Ð¸ÐºÑģ": 36326,
  "Ð¸ÐºÑĥ": 35353,
  "Ð¸Ð»": 2338,
  "Ð¸Ð»Ð°": 10578,
  "Ð¸Ð»Ð°ÑģÑĮ": 19522,
  "Ð¸Ð»Ð¸": 5435,
  "Ð¸Ð»Ð¸ÑģÑĮ": 19285,
  "Ð¸Ð»Ð»Ð¸": 22578,
  "Ð¸Ð»Ð¾": 22201,
  "Ð¸Ð»Ð¾ÑģÑĮ": 16773,
  "Ð¸Ð»ÑģÑı": 14260,
  "Ð¸Ð»ÑĮ": 7094,
  "Ð¸Ð»ÑĮÐ½Ð¾": 18693,
  "Ð¸Ð»Ñı": 50211,
  "Ð¸Ð¼": 2165,
  "Ð¸Ð¼ÐµÑĢ": 12170,
  "Ð¸Ð¼Ð¸": 11426,
  "Ð¸Ð¼Ð¾": 14365,
  "Ð¸Ð¼Ð¾ÑģÑĤÐ¸": 48417,
  "Ð¸Ð¼Ð¾ÑģÑĤÑĮ": 49514,
  "Ð¸Ð¼ÑģÑı": 32455,
  "Ð¸Ð½": 2599,
  "Ð¸Ð½Ð°": 7861,
  "Ð¸Ð½Ð³": 33177,
  "Ð¸Ð½Ðµ": 20998,
  "Ð¸Ð½Ð¸": 20303,
  "Ð¸Ð½ÐºÐ¸": 47667,
  "Ð¸Ð½Ð¾": 31486,
  "Ð¸Ð½Ð¾Ð²": 27499,
  "Ð¸Ð½Ð¾Ð¹": 30933,
  "Ð¸Ð½Ñĥ": 15387,
  "Ð¸Ð½Ñĭ": 18835,
  "Ð¸Ð¾Ð½": 26875,
  "Ð¸Ð¿": 13306,
  "Ð¸ÑĢ": 4490,
  "Ð¸ÑĢÐ°": 22204,
  "Ð¸ÑĢÐ¾Ð²": 10214,
  "Ð¸ÑĢÐ¾Ð²Ð°Ð½": 48317,
  "Ð¸ÑĢÐ¾Ð²Ð°ÑĤÑĮ": 26411,
  "Ð¸ÑĢÑĥ": 20517,
  "Ð¸Ñģ": 3323,
  "Ð¸ÑģÐ°": 50019,
  "Ð¸ÑģÐ»": 47105,
  "Ð¸ÑģÑģ": 31632,
  "Ð¸ÑģÑĤ": 9330,
  "Ð¸ÑģÑĮ": 10363,
  "Ð¸ÑĤ": 1635,
  "Ð¸ÑĤÐ°": 30816,
  "Ð¸ÑĤÐ°Ð¹": 46996,
  "Ð¸ÑĤÐ°Ð½": 48809,
  "Ð¸ÑĤÐµ": 5878,
  "Ð¸ÑĤÐµÐ»": 40334,
  "Ð¸ÑĤÐµÐ»ÐµÐ¹": 29952,
  "Ð¸ÑĤÐµÐ»Ð¸": 29084,
  "Ð¸ÑĤÐµÐ»ÑĮ": 7809,
  "Ð¸ÑĤÐµÐ»ÑĮÐ½Ð¾": 15884,
  "Ð¸ÑĤÐµÐ»Ñı": 36491,
  "Ð¸ÑĤÐµÑģÑĮ": 35334,
  "Ð¸ÑĤÐ¸": 18686,
  "Ð¸ÑĤÑģÑı": 8254,
  "Ð¸ÑĤÑĥ": 21239,
  "Ð¸ÑĤÑĭ": 43608,
  "Ð¸ÑĤÑĮ": 3258,
  "Ð¸ÑĤÑĮÑģÑı": 12306,
  "Ð¸ÑĦ": 30307,
  "Ð¸Ñħ": 4165,
  "Ð¸ÑħÐ¾Ð´": 23947,
  "Ð¸ÑĨ": 27403,
  "Ð¸ÑĨÐ¸": 30321,
  "Ð¸Ñĩ": 3903,
  "Ð¸ÑĩÐµ": 23468,
  "Ð¸ÑĩÐµÐ³Ð¾": 14636,
  "Ð¸ÑĩÐµÑģ": 9347,
  "Ð¸ÑĩÐµÑģÐºÐ°Ñı": 49221,
  "Ð¸ÑĩÐµÑģÐºÐ¸": 38187,
  "Ð¸ÑĩÐµÑģÐºÐ¸Ðµ": 38578,
  "Ð¸ÑĩÐµÑģÐºÐ¸Ð¹": 36811,
  "Ð¸ÑĩÐµÑģÐºÐ¸Ñħ": 38911,
  "Ð¸ÑĩÐµÑģÐºÐ¾Ð³Ð¾": 47988,
  "Ð¸ÑĩÐµÑģÐºÐ¾Ð¹": 38349,
  "Ð¸ÑĩÐ½Ð¾": 40680,
  "Ð¸ÑĪ": 9919,
  "Ð¸ÑĪÑĮ": 17860,
  "Ð¸Ñī": 22280,
  "Ð¸Ñİ": 17023,
  "Ð¸Ñı": 7409,
  "Ð¸ÑıÑħ": 32176,
  "Ð¹": 1644,
  "Ðº": 755,
  "ÐºÐ°": 2833,
  "ÐºÐ°Ð¼": 38708,
  "ÐºÐ°Ð¼Ð¸": 22379,
  "ÐºÐ°Ñħ": 18366,
  "ÐºÐ°Ñı": 14801,
  "ÐºÐ²": 27828,
  "ÐºÐµ": 8222,
  "ÐºÐ¸": 2241,
  "ÐºÐ¸Ð²": 48338,
  "ÐºÐ¸Ðµ": 12338,
  "ÐºÐ¸Ð¹": 8583,
  "ÐºÐ¸Ð¼": 30884,
  "ÐºÐ¸Ð¼Ð¸": 44130,
  "ÐºÐ¸Ñħ": 11855,
  "ÐºÐ»Ð°Ð´": 41634,
  "ÐºÐ»ÑİÑĩ": 20299,
  "ÐºÐ¾": 3752,
  "ÐºÐ¾Ð²": 7718,
  "ÐºÐ¾Ð³Ð¾": 21113,
  "ÐºÐ¾Ðµ": 22128,
  "ÐºÐ¾Ð¹": 11565,
  "ÐºÐ¾Ð»": 24899,
  "ÐºÐ¾Ð»ÑĮ": 35724,
  "ÐºÐ¾Ð»ÑĮÐºÑĥ": 43010,
  "ÐºÐ¾Ð¼": 14937,
  "ÐºÐ¾Ð½": 33687,
  "ÐºÐ¾ÑĹ": 48939,
  "ÐºÑĢ": 22274,
  "ÐºÑĢÐ°": 17364,
  "ÐºÑĢÐ°ÑĹ": 25433,
  "ÐºÑĢÐµÑĤ": 48503,
  "ÐºÑĤ": 42964,
  "ÐºÑĥ": 4401,
  "ÐºÑĥÑģ": 24306,
  "ÐºÑĥÑİ": 35119,
  "ÐºÑĸ": 43649,
  "Ð»": 693,
  "Ð»Ð°": 4989,
  "Ð»Ð°Ð²": 22810,
  "Ð»Ð°Ð³": 25464,
  "Ð»Ð°Ð´": 10396,
  "Ð»Ð°Ð¼": 35768,
  "Ð»Ð°Ð½": 41915,
  "Ð»Ð°ÑĢ": 23988,
  "Ð»Ð°Ñģ": 23511,
  "Ð»Ð°ÑģÑĤ": 32465,
  "Ð»Ð°ÑģÑĤÐ¸": 33513,
  "Ð»Ð°ÑĤ": 25834,
  "Ð»Ðµ": 7635,
  "Ð»ÐµÐ³": 36446,
  "Ð»ÐµÐ´": 11112,
  "Ð»ÐµÐ¹": 24698,
  "Ð»ÐµÐº": 16170,
  "Ð»ÐµÐºÑģ": 24065,
  "Ð»ÐµÐºÑĤ": 21579,
  "Ð»ÐµÐ¼": 14885,
  "Ð»ÐµÐ½": 11586,
  "Ð»ÐµÐ½Ð°": 44402,
  "Ð»ÐµÐ½Ð¸Ðµ": 17943,
  "Ð»ÐµÐ½Ð¸Ñı": 17881,
  "Ð»ÐµÑĢ": 45629,
  "Ð»ÐµÑĤ": 24997,
  "Ð»Ð¸": 1675,
  "Ð»Ð¸Ð²": 15054,
  "Ð»Ð¸Ð²Ð¾": 36719,
  "Ð»Ð¸Ð·": 41610,
  "Ð»Ð¸Ð½": 25958,
  "Ð»Ð¸ÑģÑĮ": 31524,
  "Ð»Ð¸Ñĩ": 15362,
  "Ð»Ð¸ÑĩÐ½Ð¾": 40955,
  "Ð»Ð¸ÑĪ": 35893,
  "Ð»Ð¸ÑĪÐºÐ¾Ð¼": 38638,
  "Ð»Ð¾": 4610,
  "Ð»Ð¾Ð²": 21650,
  "Ð»Ð¾Ð¶": 24522,
  "Ð»Ð¾Ð¼": 28209,
  "Ð»Ð¾Ð½": 31058,
  "Ð»Ð¾ÑģÑĮ": 37233,
  "Ð»Ð¾Ñħ": 45104,
  "Ð»Ñĥ": 39852,
  "Ð»ÑĥÑĩ": 41497,
  "Ð»ÑĥÑĪ": 25372,
  "Ð»ÑĥÑĪÐ°Ð¹": 43689,
  "Ð»Ñĭ": 30975,
  "Ð»ÑĮ": 6762,
  "Ð»Ñİ": 6578,
  "Ð»ÑİÐ´": 31179,
  "Ð»ÑİÑģ": 36467,
  "Ð»ÑİÑĩ": 11833,
  "Ð»Ñı": 2873,
  "Ð»ÑıÐµÑĤÑģÑı": 21336,
  "Ð»ÑıÑĤÑĮ": 38955,
  "Ð»ÑıÑİÑĤÑģÑı": 47310,
  "Ð¼": 919,
  "Ð¼Ð°": 14229,
  "Ð¼Ð°Ð½": 35968,
  "Ð¼Ð°ÑĤ": 34476,
  "Ð¼Ðµ": 30522,
  "Ð¼ÐµÐ½": 17859,
  "Ð¼ÐµÐ½ÑĤ": 20213,
  "Ð¼ÐµÑĢ": 12676,
  "Ð¼ÐµÑĢÐ¸Ðº": 27502,
  "Ð¼ÐµÑĤ": 23218,
  "Ð¼Ð¸": 6293,
  "Ð¼Ð¾": 20455,
  "Ð¼Ð¾Ð²": 43632,
  "Ð¼Ð¾Ñģ": 40807,
  "Ð¼Ð¾ÑĤÑĢ": 11128,
  "Ð¼Ð¾ÑĤÑĢÐ¸": 44443,
  "Ð¼Ð¾ÑĤÑĢÐ¸ÑĤÐµ": 36469,
  "Ð¼Ð¾ÑĤÑĢÑı": 45753,
  "Ð¼Ñĥ": 11147,
  "Ð¼Ñĭ": 25592,
  "Ð½": 489,
  "Ð½Ð°": 1931,
  "Ð½Ð°Ðº": 20623,
  "Ð½Ð°ÐºÐ¾": 32088,
  "Ð½Ð°ÐºÐ¾Ð¼": 45051,
  "Ð½Ð°Ð»": 35168,
  "Ð½Ð°Ð»Ð¸": 47704,
  "Ð½Ð°ÑĢÑĥÐ¶": 42286,
  "Ð½Ð°Ñĩ": 14272,
  "Ð½Ð°ÑĩÐ°Ð»Ð°": 33755,
  "Ð½Ð°Ñı": 6323,
  "Ð½Ð´": 43485,
  "Ð½Ðµ": 4677,
  "Ð½ÐµÐ²": 31725,
  "Ð½ÐµÐ³Ð¾": 33727,
  "Ð½ÐµÐµ": 15627,
  "Ð½ÐµÐ¹": 14418,
  "Ð½ÐµÐ¼": 23977,
  "Ð½ÐµÐ½Ð¸Ñı": 47819,
  "Ð½ÐµÑģ": 28302,
  "Ð½ÐµÑĤ": 27021,
  "Ð½Ð¸": 1903,
  "Ð½Ð¸Ð±": 23302,
  "Ð½Ð¸Ð±ÑĥÐ´ÑĮ": 23561,
  "Ð½Ð¸Ðµ": 30923,
  "Ð½Ð¸Ð·": 29951,
  "Ð½Ð¸Ð¹": 15199,
  "Ð½Ð¸Ðº": 9715,
  "Ð½Ð¸ÐºÐ°": 19411,
  "Ð½Ð¸ÐºÐ¸": 18994,
  "Ð½Ð¸ÐºÐ¾Ð²": 22122,
  "Ð½Ð¸ÐºÐ¾Ð¼": 43882,
  "Ð½Ð¸Ð¼": 8444,
  "Ð½Ð¸ÑĤ": 47264,
  "Ð½Ð¸ÑĤÐµ": 38066,
  "Ð½Ð¸ÑĤÑĮ": 31087,
  "Ð½Ð¸Ñħ": 21070,
  "Ð½Ð¸ÑĨ": 36787,
  "Ð½Ð¸ÑĨÐ°": 37267,
  "Ð½Ð¸ÑĨÑĥ": 49343,
  "Ð½Ð¸ÑĨÑĭ": 48902,
  "Ð½Ð¸Ñĩ": 27996,
  "Ð½Ð¾": 1234,
  "Ð½Ð¾Ð²": 8766,
  "Ð½Ð¾Ð²Ð°": 30742,
  "Ð½Ð¾Ð³": 50237,
  "Ð½Ð¾Ð³Ð¾": 4699,
  "Ð½Ð¾Ðµ": 6126,
  "Ð½Ð¾Ð¶": 27143,
  "Ð½Ð¾Ð·": 46773,
  "Ð½Ð¾Ð¹": 5007,
  "Ð½Ð¾Ðº": 48717,
  "Ð½Ð¾Ð»Ð¾Ð³": 38925,
  "Ð½Ð¾Ð¼": 9950,
  "Ð½Ð¾Ð¼Ñĥ": 20109,
  "Ð½Ð¾Ð¿": 35026,
  "Ð½Ð¾Ñģ": 32472,
  "Ð½Ð¾ÑģÑĤ": 34383,
  "Ð½Ð¾ÑģÑĤÐ¸": 13975,
  "Ð½Ð¾ÑģÑĤÑĮ": 9930,
  "Ð½Ð¾ÑģÑĤÑĮÑİ": 24517,
  "Ð½Ñĥ": 7537,
  "Ð½ÑĥÐ»": 26198,
  "Ð½ÑĥÑĤ": 35643,
  "Ð½ÑĥÑĤÑĮ": 23431,
  "Ð½ÑĥÑĤÑĮÑģÑı": 49826,
  "Ð½ÑĥÑİ": 9882,
  "Ð½Ñĭ": 1834,
  "Ð½ÑĭÐµ": 4970,
  "Ð½ÑĭÐ¹": 4441,
  "Ð½ÑĭÐ¼": 8412,
  "Ð½ÑĭÐ¼Ð¸": 15076,
  "Ð½ÑĭÑħ": 5783,
  "Ð½ÑĮ": 18399,
  "Ð½Ñİ": 18672,
  "Ð½Ñı": 5151,
  "Ð½ÑıÑĤÑĮ": 35824,
  "Ð½ÑıÑı": 41884,
  "Ð½Ñĸ": 10793,
  "Ð¾": 354,
  "Ð¾Ð": 464,
  "Ð¾Ð±": 2061,
  "Ð¾Ð±Ð¾Ð´": 32218,
  "Ð¾Ð±ÑĢ": 13829,
  "Ð¾Ð±ÑĢÐ°Ð¶": 37176,
  "Ð¾Ð±ÑĢÐ°Ð·": 38613,
  "Ð¾Ð±Ñī": 32977,
  "Ð¾Ð±ÑīÐµ": 12605,
  "Ð¾Ð±Ñĭ": 6379,
  "Ð¾Ð±ÑĭÑĤÐ¸": 41527,
  "Ð¾Ð²": 1055,
  "Ð¾Ð²Ð°": 13978,
  "Ð¾Ð²Ð°Ð»": 31731,
  "Ð¾Ð²Ð°Ð»Ð¸": 37651,
  "Ð¾Ð²Ð°Ð½": 44967,
  "Ð¾Ð²Ð°Ð½Ð¸Ðµ": 36136,
  "Ð¾Ð²Ð°Ð½Ð¸Ñı": 30821,
  "Ð¾Ð²Ð°ÑĤÑĮ": 14069,
  "Ð¾Ð²Ð¾Ð¹": 29825,
  "Ð¾Ð²Ð¾ÑĢ": 6362,
  "Ð¾Ð²ÑĭÐµ": 44238,
  "Ð¾Ð²ÑĭÑħ": 49204,
  "Ð¾Ð³": 2353,
  "Ð¾Ð³Ð´Ð°": 5590,
  "Ð¾Ð³Ð¾": 2350,
  "Ð¾Ð³Ð¾Ð´": 46928,
  "Ð¾Ð³ÑĢÐ°ÑĦ": 29046,
  "Ð¾Ð´": 1435,
  "Ð¾Ð´Ð°": 22758,
  "Ð¾Ð´Ð°ÑĢ": 28221,
  "Ð¾Ð´Ðµ": 44156,
  "Ð¾Ð´Ð½Ð¾": 44356,
  "Ð¾Ð´Ñĥ": 35749,
  "Ð¾Ð´Ñĭ": 40445,
  "Ð¾Ðµ": 5805,
  "Ð¾Ð¶": 2161,
  "Ð¾Ð¶Ð°Ð»": 18327,
  "Ð¾Ð¶Ð°Ð»ÑĥÐ¹": 24752,
  "Ð¾Ð¶Ð°Ð»ÑĥÐ¹ÑģÑĤÐ°": 27315,
  "Ð¾Ð¶Ð´": 20037,
  "Ð¾Ð¶Ð´ÐµÐ½Ð¸Ñı": 46945,
  "Ð¾Ð¶Ðµ": 9292,
  "Ð¾Ð¶ÐµÑĤ": 22180,
  "Ð¾Ð¶Ð½Ð¾": 12311,
  "Ð¾Ð¶Ñĥ": 45621,
  "Ð¾Ð·": 3434,
  "Ð¾Ð·Ð´": 46004,
  "Ð¾Ð·Ð¸": 50226,
  "Ð¾Ð·Ð¼": 29977,
  "Ð¾Ð·Ð¼Ð¾Ð¶Ð½Ð¾": 33968,
  "Ð¾Ð·Ñı": 43734,
  "Ð¾Ð¹": 1700,
  "Ð¾Ð¹Ð´": 19955,
  "Ð¾Ð¹ÑĤÐ¸": 44213,
  "Ð¾Ðº": 2637,
  "Ð¾ÐºÐ°": 20296,
  "Ð¾ÐºÐ¸": 48110,
  "Ð¾ÐºÐ¾": 32622,
  "Ð¾ÐºÐ¾Ð¹": 29667,
  "Ð¾Ð»": 1227,
  "Ð¾Ð»Ð°": 44342,
  "Ð¾Ð»ÐµÑĤ": 37083,
  "Ð¾Ð»Ð¶": 21403,
  "Ð¾Ð»Ð½": 20470,
  "Ð¾Ð»Ð¾": 33087,
  "Ð¾Ð»Ð¾Ð²": 34293,
  "Ð¾Ð»Ð¾Ð³": 18347,
  "Ð¾Ð»Ð¾Ð´": 16574,
  "Ð¾Ð»Ð¾ÑĤ": 49652,
  "Ð¾Ð»ÑĮ": 2765,
  "Ð¾Ð»ÑĮÐ·": 11692,
  "Ð¾Ð»ÑĮÐºÐ¾": 5737,
  "Ð¾Ð»ÑĮÐ½Ð¾": 26454,
  "Ð¾Ð»ÑĮÑĪ": 24110,
  "Ð¾Ð»ÑĮÑĪÐµ": 48272,
  "Ð¾Ð»Ñı": 41332,
  "Ð¾Ð¼": 1253,
  "Ð¾Ð¼Ðµ": 45540,
  "Ð¾Ð¼Ð¸Ð½Ð°": 40983,
  "Ð¾Ð¼Ñĥ": 4161,
  "Ð¾Ð½": 1784,
  "Ð¾Ð½Ð°": 14411,
  "Ð¾Ð½Ð´": 47720,
  "Ð¾Ð½Ðµ": 25561,
  "Ð¾Ð½ÐµÑĨ": 38944,
  "Ð¾Ð½Ð¸": 21869,
  "Ð¾Ð½Ð¾Ð²": 28137,
  "Ð¾Ð½Ð¾Ð¼": 22563,
  "Ð¾Ð½Ñĩ": 48446,
  "Ð¾Ð½Ñĭ": 34829,
  "Ð¾Ð½ÑĮ": 48325,
  "Ð¾Ð¿": 3762,
  "Ð¾Ð¿Ð°Ñģ": 41196,
  "Ð¾Ð¿ÑĢÐ¾Ñģ": 16307,
  "Ð¾ÑĢ": 1717,
  "Ð¾ÑĢÐ°": 22889,
  "Ð¾ÑĢÐ´": 41412,
  "Ð¾ÑĢÐµ": 38939,
  "Ð¾ÑĢÐ¼": 9167,
  "Ð¾ÑĢÐ¾Ð²": 19716,
  "Ð¾ÑĢÐ¾Ð½": 48040,
  "Ð¾ÑĢÐ¾ÑĤ": 37040,
  "Ð¾ÑĢÐ¾ÑĪ": 9247,
  "Ð¾ÑĢÐ¾ÑĪÐ¾": 29931,
  "Ð¾ÑĢÑĤ": 20040,
  "Ð¾ÑĢÑĭ": 42342,
  "Ð¾Ñģ": 1885,
[...]
